{
  "version": "1.0",
  "truncation": null,
  "padding": null,
  "added_tokens": [
    {
      "id": 0,
      "content": "[UNK]",
      "single_word": false,
      "lstrip": false,
      "rstrip": false,
      "normalized": false,
      "special": true
    },
    {
      "id": 1,
      "content": "[CLS]",
      "single_word": false,
      "lstrip": false,
      "rstrip": false,
      "normalized": false,
      "special": true
    },
    {
      "id": 2,
      "content": "[SEP]",
      "single_word": false,
      "lstrip": false,
      "rstrip": false,
      "normalized": false,
      "special": true
    },
    {
      "id": 3,
      "content": "[PAD]",
      "single_word": false,
      "lstrip": false,
      "rstrip": false,
      "normalized": false,
      "special": true
    },
    {
      "id": 4,
      "content": "[MASK]",
      "single_word": false,
      "lstrip": false,
      "rstrip": false,
      "normalized": false,
      "special": true
    }
  ],
  "normalizer": null,
  "pre_tokenizer": {
    "type": "Whitespace"
  },
  "post_processor": null,
  "decoder": null,
  "model": {
    "type": "BPE",
    "dropout": null,
    "unk_token": "[UNK]",
    "continuing_subword_prefix": null,
    "end_of_word_suffix": null,
    "fuse_unk": false,
    "byte_fallback": false,
    "ignore_merges": false,
    "vocab": {
      "[UNK]": 0,
      "[CLS]": 1,
      "[SEP]": 2,
      "[PAD]": 3,
      "[MASK]": 4,
      "!": 5,
      "\"": 6,
      "&": 7,
      "'": 8,
      "(": 9,
      ")": 10,
      "*": 11,
      ",": 12,
      "-": 13,
      ".": 14,
      "0": 15,
      "1": 16,
      "2": 17,
      "3": 18,
      "4": 19,
      "5": 20,
      "6": 21,
      "7": 22,
      "8": 23,
      "9": 24,
      ":": 25,
      ";": 26,
      "?": 27,
      "A": 28,
      "B": 29,
      "C": 30,
      "D": 31,
      "E": 32,
      "F": 33,
      "G": 34,
      "H": 35,
      "I": 36,
      "J": 37,
      "K": 38,
      "L": 39,
      "M": 40,
      "N": 41,
      "O": 42,
      "P": 43,
      "Q": 44,
      "R": 45,
      "S": 46,
      "T": 47,
      "U": 48,
      "V": 49,
      "W": 50,
      "X": 51,
      "Y": 52,
      "Z": 53,
      "[": 54,
      "]": 55,
      "_": 56,
      "a": 57,
      "b": 58,
      "c": 59,
      "d": 60,
      "e": 61,
      "f": 62,
      "g": 63,
      "h": 64,
      "i": 65,
      "j": 66,
      "k": 67,
      "l": 68,
      "m": 69,
      "n": 70,
      "o": 71,
      "p": 72,
      "q": 73,
      "r": 74,
      "s": 75,
      "t": 76,
      "u": 77,
      "v": 78,
      "w": 79,
      "x": 80,
      "y": 81,
      "z": 82,
      "﻿": 83,
      "he": 84,
      "the": 85,
      "an": 86,
      "re": 87,
      "in": 88,
      "ou": 89,
      "th": 90,
      "ed": 91,
      "and": 92,
      "to": 93,
      "at": 94,
      "on": 95,
      "er": 96,
      "ar": 97,
      "as": 98,
      "or": 99,
      "en": 100,
      "le": 101,
      "is": 102,
      "ll": 103,
      "of": 104,
      "ing": 105,
      "it": 106,
      "se": 107,
      "st": 108,
      "be": 109,
      "me": 110,
      "ad": 111,
      "ow": 112,
      "ce": 113,
      "id": 114,
      "we": 115,
      "ly": 116,
      "you": 117,
      ",\"": 118,
      "al": 119,
      "ve": 120,
      "ro": 121,
      "ir": 122,
      "wi": 123,
      "ut": 124,
      "gh": 125,
      "was": 126,
      "no": 127,
      "ch": 128,
      "all": 129,
      "im": 130,
      "ard": 131,
      ".\"": 132,
      "The": 133,
      "so": 134,
      "es": 135,
      "that": 136,
      "ld": 137,
      "ver": 138,
      "sa": 139,
      "wh": 140,
      "oo": 141,
      "they": 142,
      "ri": 143,
      "ck": 144,
      "for": 145,
      "li": 146,
      "un": 147,
      "red": 148,
      "with": 149,
      "ca": 150,
      "ght": 151,
      "his": 152,
      "ay": 153,
      "ti": 154,
      "oun": 155,
      "had": 156,
      "ge": 157,
      "pe": 158,
      "iz": 159,
      "ra": 160,
      "up": 161,
      "them": 162,
      "oth": 163,
      "said": 164,
      "ne": 165,
      "ha": 166,
      "Wiz": 167,
      "Wizard": 168,
      "ther": 169,
      "ent": 170,
      "were": 171,
      "one": 172,
      "not": 173,
      "Dor": 174,
      "othy": 175,
      "Dorothy": 176,
      "co": 177,
      "ab": 178,
      "su": 179,
      "itt": 180,
      "ain": 181,
      "ke": 182,
      "?\"": 183,
      "ould": 184,
      "out": 185,
      "whe": 186,
      "are": 187,
      "but": 188,
      "mo": 189,
      "fu": 190,
      "ked": 191,
      "ust": 192,
      "her": 193,
      "ig": 194,
      "la": 195,
      "de": 196,
      "man": 197,
      "sh": 198,
      "ss": 199,
      "she": 200,
      "orse": 201,
      "gr": 202,
      "ter": 203,
      "way": 204,
      "this": 205,
      "my": 206,
      "ure": 207,
      "lo": 208,
      "ag": 209,
      "our": 210,
      "am": 211,
      "ound": 212,
      "Jim": 213,
      "ood": 214,
      "do": 215,
      "qu": 216,
      "bu": 217,
      "bo": 218,
      "op": 219,
      "rom": 220,
      "fe": 221,
      "ur": 222,
      "can": 223,
      "whi": 224,
      "ion": 225,
      "But": 226,
      "ong": 227,
      "see": 228,
      "from": 229,
      "litt": 230,
      "own": 231,
      "eb": 232,
      "go": 233,
      "their": 234,
      "Zeb": 235,
      "end": 236,
      "little": 237,
      "reat": 238,
      "!\"": 239,
      "ts": 240,
      "po": 241,
      "horse": 242,
      "him": 243,
      "very": 244,
      "now": 245,
      "other": 246,
      "have": 247,
      "ough": 248,
      "if": 249,
      "us": 250,
      "ry": 251,
      "will": 252,
      "ex": 253,
      "fo": 254,
      "et": 255,
      "ear": 256,
      "time": 257,
      "thing": 258,
      "ide": 259,
      "Oz": 260,
      "could": 261,
      "hed": 262,
      "gg": 263,
      "il": 264,
      "pl": 265,
      "ince": 266,
      "upon": 267,
      "ma": 268,
      "any": 269,
      "ful": 270,
      "air": 271,
      "ted": 272,
      "ac": 273,
      "ru": 274,
      "there": 275,
      "when": 276,
      "which": 277,
      "ang": 278,
      "into": 279,
      "some": 280,
      "hat": 281,
      "ast": 282,
      "by": 283,
      "con": 284,
      "ers": 285,
      "asked": 286,
      "ount": 287,
      "ass": 288,
      "Pr": 289,
      "ap": 290,
      "ople": 291,
      "Prince": 292,
      "loo": 293,
      "rep": 294,
      "ous": 295,
      "people": 296,
      "would": 297,
      "ind": 298,
      "led": 299,
      "te": 300,
      "af": 301,
      "side": 302,
      "ans": 303,
      "who": 304,
      "like": 305,
      "ggy": 306,
      "low": 307,
      "get": 308,
      "buggy": 309,
      "gir": 310,
      "long": 311,
      "ved": 312,
      "girl": 313,
      "ace": 314,
      "ant": 315,
      "TH": 316,
      "too": 317,
      "ight": 318,
      "ta": 319,
      "again": 320,
      "did": 321,
      "ill": 322,
      "les": 323,
      "ho": 324,
      "where": 325,
      "down": 326,
      "your": 327,
      "ice": 328,
      "use": 329,
      "der": 330,
      "great": 331,
      "tur": 332,
      "dis": 333,
      "ep": 334,
      "fri": 335,
      "pig": 336,
      "It": 337,
      "over": 338,
      "They": 339,
      "boy": 340,
      "king": 341,
      "sp": 342,
      "vo": 343,
      "ine": 344,
      "come": 345,
      "able": 346,
      "itten": 347,
      "turn": 348,
      "Eure": 349,
      "ka": 350,
      "than": 351,
      "came": 352,
      "fore": 353,
      "Eureka": 354,
      "ble": 355,
      "ba": 356,
      "kitten": 357,
      "pro": 358,
      "then": 359,
      "ought": 360,
      "ite": 361,
      "ick": 362,
      "thr": 363,
      "more": 364,
      "full": 365,
      "We": 366,
      "THE": 367,
      "--": 368,
      "head": 369,
      "str": 370,
      "ade": 371,
      "cl": 372,
      "gl": 373,
      "ped": 374,
      "wo": 375,
      "com": 376,
      "He": 377,
      "wor": 378,
      "here": 379,
      "ation": 380,
      "been": 381,
      "after": 382,
      "mu": 383,
      "pre": 384,
      "rem": 385,
      "friend": 386,
      "ever": 387,
      "good": 388,
      "per": 389,
      "um": 390,
      "light": 391,
      "back": 392,
      "wood": 393,
      "read": 394,
      "art": 395,
      "pigle": 396,
      "fully": 397,
      "So": 398,
      "med": 399,
      "its": 400,
      "before": 401,
      "ried": 402,
      "much": 403,
      "made": 404,
      "rea": 405,
      "about": 406,
      "earth": 407,
      "el": 408,
      "eat": 409,
      "pla": 410,
      "sel": 411,
      "lied": 412,
      "sure": 413,
      "voice": 414,
      "gre": 415,
      "must": 416,
      "sc": 417,
      "ward": 418,
      "replied": 419,
      "away": 420,
      "wered": 421,
      "unti": 422,
      "answered": 423,
      "dra": 424,
      "ey": 425,
      "ic": 426,
      "nes": 427,
      "ven": 428,
      "top": 429,
      "around": 430,
      "Then": 431,
      "until": 432,
      "cla": 433,
      "ple": 434,
      "ings": 435,
      "Princess": 436,
      "wooden": 437,
      "No": 438,
      "just": 439,
      "know": 440,
      "ty": 441,
      "tin": 442,
      "rer": 443,
      "what": 444,
      "face": 445,
      "ate": 446,
      "ity": 447,
      "ves": 448,
      "turned": 449,
      "through": 450,
      "You": 451,
      "sm": 452,
      "cause": 453,
      "piglets": 454,
      "ms": 455,
      "won": 456,
      "ance": 457,
      "ish": 458,
      "hap": 459,
      "What": 460,
      "big": 461,
      "count": 462,
      "ild": 463,
      "ink": 464,
      "llow": 465,
      "beg": 466,
      "because": 467,
      "orce": 468,
      "ened": 469,
      "bod": 470,
      "orcerer": 471,
      "ced": 472,
      "creat": 473,
      "don": 474,
      "Ozma": 475,
      "place": 476,
      "ving": 477,
      "these": 478,
      "once": 479,
      "roo": 480,
      "que": 481,
      "eyes": 482,
      "An": 483,
      "Gar": 484,
      "Sorcerer": 485,
      "ct": 486,
      "call": 487,
      "ment": 488,
      "two": 489,
      "being": 490,
      "ustr": 491,
      "many": 492,
      "grow": 493,
      "goy": 494,
      "Gargoy": 495,
      "ared": 496,
      "near": 497,
      "appe": 498,
      "bl": 499,
      "brea": 500,
      "ily": 501,
      "vis": 502,
      "orn": 503,
      "right": 504,
      "most": 505,
      "glass": 506,
      "Ill": 507,
      "Mang": 508,
      "br": 509,
      "cle": 510,
      "never": 511,
      "aboo": 512,
      "while": 513,
      "creature": 514,
      "ustration": 515,
      "Illustration": 516,
      "Mangaboo": 517,
      "ave": 518,
      "cried": 519,
      "gs": 520,
      "wal": 521,
      "another": 522,
      "less": 523,
      "child": 524,
      "ally": 525,
      "soon": 526,
      "sur": 527,
      "ountain": 528,
      "In": 529,
      "That": 530,
      "fir": 531,
      "let": 532,
      "Sa": 533,
      "ach": 534,
      "che": 535,
      "fi": 536,
      "flo": 537,
      "ies": 538,
      "ious": 539,
      "ks": 540,
      "ose": 541,
      "old": 542,
      "ree": 543,
      "ren": 544,
      "care": 545,
      "friends": 546,
      "Gargoyles": 547,
      "Land": 548,
      "ched": 549,
      "dd": 550,
      "mer": 551,
      "ris": 552,
      "toge": 553,
      "star": 554,
      "bea": 555,
      "began": 556,
      "together": 557,
      "If": 558,
      "bro": 559,
      "day": 560,
      "fast": 561,
      "ting": 562,
      "those": 563,
      "bear": 564,
      "There": 565,
      "whorse": 566,
      "tion": 567,
      "things": 568,
      "make": 569,
      "country": 570,
      "And": 571,
      "Mangaboos": 572,
      "even": 573,
      "igh": 574,
      "mountain": 575,
      "thought": 576,
      "ground": 577,
      "ears": 578,
      "ness": 579,
      "beaut": 580,
      "ER": 581,
      "ft": 582,
      "hand": 583,
      "ul": 584,
      "ouse": 585,
      "ort": 586,
      "enough": 587,
      "saw": 588,
      "pleas": 589,
      "first": 590,
      "ds": 591,
      "every": 592,
      "ible": 593,
      "row": 594,
      "sat": 595,
      "ser": 596,
      "hen": 597,
      "only": 598,
      "arked": 599,
      "rock": 600,
      "qui": 601,
      "tell": 602,
      "remarked": 603,
      "self": 604,
      "happ": 605,
      "di": 606,
      "dre": 607,
      "has": 608,
      "went": 609,
      "wings": 610,
      "ange": 611,
      "rest": 612,
      "ated": 613,
      "still": 614,
      "under": 615,
      "looked": 616,
      "lowly": 617,
      "body": 618,
      "children": 619,
      "Sawhorse": 620,
      "beauti": 621,
      "aw": 622,
      "found": 623,
      "how": 624,
      "jo": 625,
      "tra": 626,
      "wat": 627,
      "ence": 628,
      "seen": 629,
      "well": 630,
      "esca": 631,
      "new": 632,
      "quite": 633,
      "seemed": 634,
      "Oh": 635,
      "ath": 636,
      "land": 637,
      "may": 638,
      "sto": 639,
      "oft": 640,
      "look": 641,
      "take": 642,
      "pret": 643,
      "called": 644,
      "AR": 645,
      "IN": 646,
      "This": 647,
      "When": 648,
      "age": 649,
      "clo": 650,
      "ive": 651,
      "pu": 652,
      "put": 653,
      "spe": 654,
      "ug": 655,
      "returned": 656,
      "ens": 657,
      "bet": 658,
      "got": 659,
      "act": 660,
      "took": 661,
      "strange": 662,
      "drag": 663,
      "Wh": 664,
      "bed": 665,
      "ball": 666,
      "eas": 667,
      "stoo": 668,
      "slowly": 669,
      "roof": 670,
      "cab": 671,
      "such": 672,
      "open": 673,
      "few": 674,
      "cannot": 675,
      "wonder": 676,
      "beautiful": 677,
      "stood": 678,
      "How": 679,
      "cra": 680,
      "far": 681,
      "four": 682,
      "hun": 683,
      "ns": 684,
      "pris": 685,
      "sun": 686,
      "sil": 687,
      "ye": 688,
      "real": 689,
      "int": 690,
      "enqui": 691,
      "ley": 692,
      "ise": 693,
      "sever": 694,
      "ste": 695,
      "imal": 696,
      "raid": 697,
      "Why": 698,
      "several": 699,
      "bow": 700,
      "cour": 701,
      "each": 702,
      "gra": 703,
      "pt": 704,
      "sing": 705,
      "sent": 706,
      "heard": 707,
      "animal": 708,
      "toward": 709,
      "stair": 710,
      "adv": 711,
      "follow": 712,
      "room": 713,
      "appeared": 714,
      "floor": 715,
      "bears": 716,
      "cat": 717,
      "car": 718,
      "dread": 719,
      "ie": 720,
      "pick": 721,
      "ran": 722,
      "ue": 723,
      "hel": 724,
      "att": 725,
      "off": 726,
      "ald": 727,
      "vered": 728,
      "need": 729,
      "gry": 730,
      "love": 731,
      "plain": 732,
      "clim": 733,
      "pretty": 734,
      "enquired": 735,
      "az": 736,
      "ded": 737,
      "fl": 738,
      "fle": 739,
      "house": 740,
      "mis": 741,
      "sk": 742,
      "stop": 743,
      "yal": 744,
      "though": 745,
      "ene": 746,
      "left": 747,
      "alley": 748,
      "vel": 749,
      "imed": 750,
      "cked": 751,
      "covered": 752,
      "show": 753,
      "excla": 754,
      "selves": 755,
      "small": 756,
      "dden": 757,
      "broad": 758,
      "course": 759,
      "exclaimed": 760,
      "AN": 761,
      "AP": 762,
      "Yes": 763,
      "ber": 764,
      "cent": 765,
      "city": 766,
      "find": 767,
      "gard": 768,
      "ning": 769,
      "oon": 770,
      "pass": 771,
      "rou": 772,
      "run": 773,
      "legs": 774,
      "ished": 775,
      "set": 776,
      "stre": 777,
      "stand": 778,
      "ook": 779,
      "dear": 780,
      "decla": 781,
      "door": 782,
      "pock": 783,
      "ached": 784,
      "contin": 785,
      "green": 786,
      "draw": 787,
      "breath": 788,
      "brought": 789,
      "creatures": 790,
      "escape": 791,
      "declared": 792,
      "CH": 793,
      "ES": 794,
      "On": 795,
      "She": 796,
      "To": 797,
      "bled": 798,
      "cir": 799,
      "ered": 800,
      "har": 801,
      "ling": 802,
      "might": 803,
      "nine": 804,
      "ob": 805,
      "pal": 806,
      "sn": 807,
      "tain": 808,
      "ught": 809,
      "wr": 810,
      "ined": 811,
      "leep": 812,
      "cess": 813,
      "veget": 814,
      "nothing": 815,
      "say": 816,
      "form": 817,
      "lie": 818,
      "having": 819,
      "moment": 820,
      "lored": 821,
      "grew": 822,
      "tiny": 823,
      "balloon": 824,
      "followed": 825,
      "palace": 826,
      "As": 827,
      "TER": 828,
      "cer": 829,
      "des": 830,
      "fall": 831,
      "gave": 832,
      "hal": 833,
      "kn": 834,
      "lan": 835,
      "ued": 836,
      "hes": 837,
      "ins": 838,
      "invis": 839,
      "think": 840,
      "ton": 841,
      "isn": 842,
      "ist": 843,
      "almost": 844,
      "enture": 845,
      "colored": 846,
      "sudden": 847,
      "dec": 848,
      "shall": 849,
      "ways": 850,
      "agic": 851,
      "going": 852,
      "pos": 853,
      "others": 854,
      "ame": 855,
      "ged": 856,
      "hur": 857,
      "je": 858,
      "ken": 859,
      "last": 860,
      "mp": 861,
      "mind": 862,
      "ner": 863,
      "pers": 864,
      "sig": 865,
      "wa": 866,
      "wish": 867,
      "held": 868,
      "reached": 869,
      "inside": 870,
      "told": 871,
      "tone": 872,
      "ons": 873,
      "ark": 874,
      "arri": 875,
      "seat": 876,
      "stra": 877,
      "step": 878,
      "keep": 879,
      "grass": 880,
      "used": 881,
      "times": 882,
      "looking": 883,
      "strang": 884,
      "merald": 885,
      "better": 886,
      "crack": 887,
      "APTER": 888,
      "pocket": 889,
      "continued": 890,
      "CHAPTER": 891,
      ".]": 892,
      "All": 893,
      "Do": 894,
      "Just": 895,
      "OF": 896,
      "OR": 897,
      "both": 898,
      "cas": 899,
      "crow": 900,
      "fair": 901,
      "ix": 902,
      "lar": 903,
      "round": 904,
      "sid": 905,
      "soft": 906,
      "tal": 907,
      "try": 908,
      "tru": 909,
      "xt": 910,
      "years": 911,
      "arp": 912,
      "stant": 913,
      "race": 914,
      "sharp": 915,
      "dist": 916,
      "word": 917,
      "vegetable": 918,
      "lanter": 919,
      "strangers": 920,
      "Un": 921,
      "cted": 922,
      "dam": 923,
      "flow": 924,
      "fine": 925,
      "hard": 926,
      "hum": 927,
      "par": 928,
      "part": 929,
      "sha": 930,
      "spl": 931,
      "six": 932,
      "yet": 933,
      "ants": 934,
      "three": 935,
      "edge": 936,
      "lead": 937,
      "stu": 938,
      "beside": 939,
      "also": 940,
      "ries": 941,
      "live": 942,
      "next": 943,
      "mother": 944,
      "lack": 945,
      "sho": 946,
      "shed": 947,
      "fell": 948,
      "glad": 949,
      "remain": 950,
      "ready": 951,
      "queer": 952,
      "surface": 953,
      "drew": 954,
      "adventure": 955,
      "picked": 956,
      "gardens": 957,
      "large": 958,
      "For": 959,
      "Of": 960,
      "Valley": 961,
      "Where": 962,
      "bit": 963,
      "fru": 964,
      "fight": 965,
      "hall": 966,
      "ither": 967,
      "name": 968,
      "tri": 969,
      "tun": 970,
      "table": 971,
      "arms": 972,
      "lled": 973,
      "start": 974,
      "means": 975,
      "added": 976,
      "although": 977,
      "always": 978,
      "same": 979,
      "caught": 980,
      "themselves": 981,
      "ently": 982,
      "bug": 983,
      "feet": 984,
      "plat": 985,
      "cond": 986,
      "afraid": 987,
      "tail": 988,
      "home": 989,
      "appear": 990,
      "walked": 991,
      "prison": 992,
      "suns": 993,
      "yellow": 994,
      "help": 995,
      "wrong": 996,
      "half": 997,
      "known": 998,
      "person": 999,
      "ED": 1000,
      "bon": 1001,
      "cu": 1002,
      "cut": 1003,
      "ction": 1004,
      "ff": 1005,
      "mat": 1006,
      "sound": 1007,
      "since": 1008,
      "anted": 1009,
      "ines": 1010,
      "thorn": 1011,
      "arm": 1012,
      "ary": 1013,
      "ited": 1014,
      "ided": 1015,
      "wel": 1016,
      "als": 1017,
      "along": 1018,
      "noti": 1019,
      "why": 1020,
      "without": 1021,
      "cave": 1022,
      "gest": 1023,
      "hair": 1024,
      "onet": 1025,
      "whether": 1026,
      "moved": 1027,
      "should": 1028,
      "ters": 1029,
      "something": 1030,
      "spr": 1031,
      "Well": 1032,
      "haps": 1033,
      "walk": 1034,
      "served": 1035,
      "happen": 1036,
      "easily": 1037,
      "stairs": 1038,
      "dreadful": 1039,
      "climb": 1040,
      "passed": 1041,
      "suddenly": 1042,
      "hurt": 1043,
      "humbug": 1044,
      "At": 1045,
      "City": 1046,
      "Emerald": 1047,
      "Horse": 1048,
      "Ro": 1049,
      "Tig": 1050,
      "Vo": 1051,
      "ake": 1052,
      "bir": 1053,
      "bab": 1054,
      "cru": 1055,
      "cious": 1056,
      "din": 1057,
      "fter": 1058,
      "give": 1059,
      "ggest": 1060,
      "hu": 1061,
      "jum": 1062,
      "nor": 1063,
      "path": 1064,
      "rs": 1065,
      "sca": 1066,
      "sleep": 1067,
      "usu": 1068,
      "oud": 1069,
      "tones": 1070,
      "lea": 1071,
      "ster": 1072,
      "best": 1073,
      "below": 1074,
      "belong": 1075,
      "These": 1076,
      "formed": 1077,
      "suggest": 1078,
      "ssed": 1079,
      "feel": 1080,
      "pose": 1081,
      "anger": 1082,
      "reply": 1083,
      "heads": 1084,
      "comp": 1085,
      "els": 1086,
      "nearly": 1087,
      "blue": 1088,
      "water": 1089,
      "hungry": 1090,
      "stead": 1091,
      "circ": 1092,
      "harness": 1093,
      "case": 1094,
      "distance": 1095,
      "lanterns": 1096,
      "trick": 1097,
      "Royal": 1098,
      "Tiger": 1099,
      "Voe": 1100,
      "After": 1101,
      "Be": 1102,
      "ET": 1103,
      "Let": 1104,
      "Th": 1105,
      "WI": 1106,
      "Wit": 1107,
      "cor": 1108,
      "cur": 1109,
      "dark": 1110,
      "either": 1111,
      "fla": 1112,
      "fact": 1113,
      "ia": 1114,
      "kes": 1115,
      "kick": 1116,
      "lt": 1117,
      "mand": 1118,
      "mar": 1119,
      "oc": 1120,
      "pow": 1121,
      "prom": 1122,
      "sor": 1123,
      "spo": 1124,
      "sight": 1125,
      "sword": 1126,
      "tre": 1127,
      "trou": 1128,
      "ugh": 1129,
      "wind": 1130,
      "heart": 1131,
      "outh": 1132,
      "ond": 1133,
      "aston": 1134,
      "ense": 1135,
      "leave": 1136,
      "become": 1137,
      "mem": 1138,
      "ross": 1139,
      "ching": 1140,
      "vern": 1141,
      "safe": 1142,
      "ung": 1143,
      "cavern": 1144,
      "laugh": 1145,
      "deed": 1146,
      "short": 1147,
      "lost": 1148,
      "ended": 1149,
      "himself": 1150,
      "iff": 1151,
      "exam": 1152,
      "explain": 1153,
      "fol": 1154,
      "apart": 1155,
      "illed": 1156,
      "hole": 1157,
      "bodies": 1158,
      "break": 1159,
      "ches": 1160,
      "happened": 1161,
      "dire": 1162,
      "dragonet": 1163,
      "opening": 1164,
      "wonderful": 1165,
      "flew": 1166,
      "stopped": 1167,
      "decided": 1168,
      "fruit": 1169,
      "AL": 1170,
      "Are": 1171,
      "Bill": 1172,
      "IG": 1173,
      "Lion": 1174,
      "My": 1175,
      "Now": 1176,
      "Never": 1177,
      "OU": 1178,
      "Rain": 1179,
      "Rul": 1180,
      "corn": 1181,
      "du": 1182,
      "dou": 1183,
      "danger": 1184,
      "fr": 1185,
      "fat": 1186,
      "fly": 1187,
      "foo": 1188,
      "gu": 1189,
      "high": 1190,
      "ience": 1191,
      "kind": 1192,
      "knew": 1193,
      "mid": 1194,
      "magic": 1195,
      "mouth": 1196,
      "ng": 1197,
      "nice": 1198,
      "oil": 1199,
      "pri": 1200,
      "sed": 1201,
      "sup": 1202,
      "sque": 1203,
      "tro": 1204,
      "tall": 1205,
      "wand": 1206,
      "wall": 1207,
      "hear": 1208,
      "reed": 1209,
      "really": 1210,
      "oup": 1211,
      "ery": 1212,
      "ingly": 1213,
      "beast": 1214,
      "young": 1215,
      "sol": 1216,
      "white": 1217,
      "life": 1218,
      "tic": 1219,
      "ize": 1220,
      "suc": 1221,
      "bush": 1222,
      "felt": 1223,
      "seems": 1224,
      "poss": 1225,
      "rub": 1226,
      "ously": 1227,
      "wouldn": 1228,
      "didn": 1229,
      "hold": 1230,
      "fright": 1231,
      "strong": 1232,
      "work": 1233,
      "piglet": 1234,
      "quest": 1235,
      "clear": 1236,
      "iously": 1237,
      "started": 1238,
      "often": 1239,
      "close": 1240,
      "houses": 1241,
      "invisible": 1242,
      "talk": 1243,
      "Uncle": 1244,
      "splend": 1245,
      "curi": 1246,
      "Can": 1247,
      "Don": 1248,
      "IT": 1249,
      "ON": 1250,
      "OO": 1251,
      "cr": 1252,
      "dro": 1253,
      "dri": 1254,
      "fa": 1255,
      "gaz": 1256,
      "io": 1257,
      "loud": 1258,
      "min": 1259,
      "ned": 1260,
      "night": 1261,
      "ping": 1262,
      "pink": 1263,
      "ray": 1264,
      "swe": 1265,
      "uck": 1266,
      "ugs": 1267,
      "val": 1268,
      "res": 1269,
      "reas": 1270,
      "remem": 1271,
      "indeed": 1272,
      "tom": 1273,
      "ating": 1274,
      "ash": 1275,
      "eng": 1276,
      "ised": 1277,
      "lling": 1278,
      "ition": 1279,
      "meet": 1280,
      "wiz": 1281,
      "vers": 1282,
      "whis": 1283,
      "lived": 1284,
      "unn": 1285,
      "unseen": 1286,
      "ney": 1287,
      "laug": 1288,
      "dest": 1289,
      "dead": 1290,
      "deli": 1291,
      "delight": 1292,
      "myself": 1293,
      "aged": 1294,
      "does": 1295,
      "quick": 1296,
      "quake": 1297,
      "poin": 1298,
      "play": 1299,
      "tered": 1300,
      "taken": 1301,
      "against": 1302,
      "turning": 1303,
      "prove": 1304,
      "coming": 1305,
      "Here": 1306,
      "knows": 1307,
      "surpris": 1308,
      "carefully": 1309,
      "days": 1310,
      "pleased": 1311,
      "pleasant": 1312,
      "joined": 1313,
      "ARD": 1314,
      "spect": 1315,
      "silent": 1316,
      "sky": 1317,
      "street": 1318,
      "standing": 1319,
      "drawing": 1320,
      "certain": 1321,
      "trouble": 1322,
      "folks": 1323,
      "Ruler": 1324,
      "doub": 1325,
      "splendid": 1326,
      "minut": 1327,
      "remember": 1328,
      "laughed": 1329,
      "BL": 1330,
      "Co": 1331,
      "Hugs": 1332,
      "Is": 1333,
      "Mr": 1334,
      "OZ": 1335,
      "Per": 1336,
      "RA": 1337,
      "Stones": 1338,
      "ZARD": 1339,
      "braid": 1340,
      "black": 1341,
      "fac": 1342,
      "gone": 1343,
      "hour": 1344,
      "hind": 1345,
      "ied": 1346,
      "men": 1347,
      "pie": 1348,
      "swi": 1349,
      "tou": 1350,
      "treat": 1351,
      "tried": 1352,
      "ured": 1353,
      "anx": 1354,
      "aned": 1355,
      "revo": 1356,
      "ina": 1357,
      "inj": 1358,
      "inking": 1359,
      "instant": 1360,
      "thick": 1361,
      "ats": 1362,
      "second": 1363,
      "stri": 1364,
      "stru": 1365,
      "became": 1366,
      "belie": 1367,
      "ceed": 1368,
      "ident": 1369,
      "royal": 1370,
      "nose": 1371,
      "imp": 1372,
      "forms": 1373,
      "unch": 1374,
      "pered": 1375,
      "rather": 1376,
      "nest": 1377,
      "neare": 1378,
      "ign": 1379,
      "group": 1380,
      "ager": 1381,
      "agreed": 1382,
      "amed": 1383,
      "among": 1384,
      "buil": 1385,
      "box": 1386,
      "fear": 1387,
      "expe": 1388,
      "gged": 1389,
      "iled": 1390,
      "plant": 1391,
      "anything": 1392,
      "aped": 1393,
      "hope": 1394,
      "disappeared": 1395,
      "space": 1396,
      "woman": 1397,
      "comfor": 1398,
      "world": 1399,
      "words": 1400,
      "present": 1401,
      "Some": 1402,
      "placed": 1403,
      "scar": 1404,
      "ately": 1405,
      "smoo": 1406,
      "begin": 1407,
      "rooms": 1408,
      "growing": 1409,
      "fire": 1410,
      "ular": 1411,
      "serv": 1412,
      "single": 1413,
      "climbed": 1414,
      "center": 1415,
      "cession": 1416,
      "true": 1417,
      "flowers": 1418,
      "platform": 1419,
      "noticed": 1420,
      "WIZARD": 1421,
      "astonished": 1422,
      "direction": 1423,
      "Billina": 1424,
      "possible": 1425,
      "doubt": 1426,
      "Hugson": 1427,
      "revol": 1428,
      "believe": 1429,
      "built": 1430,
      "Bel": 1431,
      "Cha": 1432,
      "EN": 1433,
      "Good": 1434,
      "Hen": 1435,
      "House": 1436,
      "IC": 1437,
      "Kans": 1438,
      "MA": 1439,
      "Magic": 1440,
      "Qu": 1441,
      "Re": 1442,
      "Scare": 1443,
      "Tin": 1444,
      "Very": 1445,
      "Wood": 1446,
      "broo": 1447,
      "ci": 1448,
      "dim": 1449,
      "ev": 1450,
      "ell": 1451,
      "est": 1452,
      "fish": 1453,
      "ip": 1454,
      "ith": 1455,
      "ile": 1456,
      "jour": 1457,
      "mil": 1458,
      "noun": 1459,
      "pas": 1460,
      "pur": 1461,
      "sence": 1462,
      "trem": 1463,
      "tum": 1464,
      "ws": 1465,
      "wer": 1466,
      "ank": 1467,
      "announ": 1468,
      "rely": 1469,
      "tor": 1470,
      "ates": 1471,
      "ont": 1472,
      "aster": 1473,
      "ention": 1474,
      "least": 1475,
      "ishes": 1476,
      "mean": 1477,
      "cely": 1478,
      "wear": 1479,
      "ween": 1480,
      "vely": 1481,
      "roy": 1482,
      "road": 1483,
      "noise": 1484,
      "ards": 1485,
      "rill": 1486,
      "river": 1487,
      "ripe": 1488,
      "fortun": 1489,
      "unless": 1490,
      "tied": 1491,
      "cot": 1492,
      "sub": 1493,
      "suit": 1494,
      "motion": 1495,
      "fur": 1496,
      "managed": 1497,
      "ssion": 1498,
      "lot": 1499,
      "amaz": 1500,
      "doz": 1501,
      "bot": 1502,
      "ions": 1503,
      "poor": 1504,
      "horses": 1505,
      "exce": 1506,
      "couldn": 1507,
      "making": 1508,
      "across": 1509,
      "longer": 1510,
      "greatly": 1511,
      "procession": 1512,
      "reach": 1513,
      "eating": 1514,
      "scat": 1515,
      "Not": 1516,
      "blood": 1517,
      "walking": 1518,
      "chel": 1519,
      "fastened": 1520,
      "please": 1521,
      "satchel": 1522,
      "rocks": 1523,
      "joy": 1524,
      "story": 1525,
      "pushed": 1526,
      "between": 1527,
      "bowed": 1528,
      "animals": 1529,
      "catch": 1530,
      "ief": 1531,
      "attention": 1532,
      "lovely": 1533,
      "observed": 1534,
      "mpion": 1535,
      "sign": 1536,
      "sighed": 1537,
      "arrived": 1538,
      "fairy": 1539,
      "appearance": 1540,
      "bones": 1541,
      "thorns": 1542,
      "welcome": 1543,
      "bably": 1544,
      "usually": 1545,
      "suggested": 1546,
      "circus": 1547,
      "trees": 1548,
      "front": 1549,
      "trot": 1550,
      "solid": 1551,
      "frightened": 1552,
      "question": 1553,
      "sweet": 1554,
      "piece": 1555,
      "smooth": 1556,
      "Belt": 1557,
      "Champion": 1558,
      "Kansas": 1559,
      "Scarecrow": 1560,
      "journey": 1561,
      "milk": 1562,
      "announced": 1563,
      "Al": 1564,
      "By": 1565,
      "Did": 1566,
      "IM": 1567,
      "King": 1568,
      "Munch": 1569,
      "One": 1570,
      "RI": 1571,
      "Will": 1572,
      "Who": 1573,
      "bad": 1574,
      "bra": 1575,
      "born": 1576,
      "bright": 1577,
      "cal": 1578,
      "cts": 1579,
      "dle": 1580,
      "dain": 1581,
      "ek": 1582,
      "ech": 1583,
      "eld": 1584,
      "eager": 1585,
      "fin": 1586,
      "fam": 1587,
      "food": 1588,
      "filled": 1589,
      "funn": 1590,
      "ger": 1591,
      "hop": 1592,
      "hast": 1593,
      "pat": 1594,
      "prep": 1595,
      "ror": 1596,
      "sw": 1597,
      "sad": 1598,
      "squ": 1599,
      "tes": 1600,
      "tent": 1601,
      "tched": 1602,
      "valley": 1603,
      "wise": 1604,
      "yaw": 1605,
      "heels": 1606,
      "anced": 1607,
      "anks": 1608,
      "respect": 1609,
      "ouds": 1610,
      "tory": 1611,
      "atur": 1612,
      "atta": 1613,
      "arned": 1614,
      "asc": 1615,
      "asleep": 1616,
      "ordin": 1617,
      "ench": 1618,
      "itation": 1619,
      "bey": 1620,
      "behind": 1621,
      "advis": 1622,
      "ows": 1623,
      "allow": 1624,
      "ess": 1625,
      "save": 1626,
      "rain": 1627,
      "nel": 1628,
      "neigh": 1629,
      "col": 1630,
      "cold": 1631,
      "sumed": 1632,
      "kept": 1633,
      "deal": 1634,
      "dered": 1635,
      "deep": 1636,
      "shook": 1637,
      "dom": 1638,
      "dome": 1639,
      "build": 1640,
      "fect": 1641,
      "seem": 1642,
      "ends": 1643,
      "pol": 1644,
      "expre": 1645,
      "iling": 1646,
      "acc": 1647,
      "rule": 1648,
      "sometimes": 1649,
      "consc": 1650,
      "discovered": 1651,
      "pigs": 1652,
      "proper": 1653,
      "clouds": 1654,
      "afterward": 1655,
      "perhaps": 1656,
      "lights": 1657,
      "earthquake": 1658,
      "else": 1659,
      "visible": 1660,
      "field": 1661,
      "careful": 1662,
      "thoughtfully": 1663,
      "hands": 1664,
      "awful": 1665,
      "join": 1666,
      "train": 1667,
      "escaped": 1668,
      "actly": 1669,
      "dragon": 1670,
      "steep": 1671,
      "stairway": 1672,
      "carry": 1673,
      "carried": 1674,
      "dreadfully": 1675,
      "showed": 1676,
      "AND": 1677,
      "doorway": 1678,
      "Once": 1679,
      "obje": 1680,
      "falling": 1681,
      "strap": 1682,
      "straight": 1683,
      "stantly": 1684,
      "leading": 1685,
      "tunnel": 1686,
      "cruel": 1687,
      "jumped": 1688,
      "company": 1689,
      "steadily": 1690,
      "tricks": 1691,
      "flame": 1692,
      "manded": 1693,
      "power": 1694,
      "promised": 1695,
      "breakfast": 1696,
      "dragonettes": 1697,
      "corner": 1698,
      "gazing": 1699,
      "rays": 1700,
      "reason": 1701,
      "wizard": 1702,
      "destroy": 1703,
      "Come": 1704,
      "Perhaps": 1705,
      "expected": 1706,
      "scarcely": 1707,
      "revolvers": 1708,
      "Henry": 1709,
      "Real": 1710,
      "Woodman": 1711,
      "bottom": 1712,
      "Munchk": 1713,
      "calm": 1714,
      "funny": 1715,
      "BE": 1716,
      "Black": 1717,
      "DOR": 1718,
      "Gur": 1719,
      "HT": 1720,
      "His": 1721,
      "Hun": 1722,
      "High": 1723,
      "Jell": 1724,
      "JIM": 1725,
      "MAN": 1726,
      "Our": 1727,
      "OTH": 1728,
      "Pre": 1729,
      "RE": 1730,
      "Sir": 1731,
      "With": 1732,
      "ak": 1733,
      "cou": 1734,
      "cup": 1735,
      "diff": 1736,
      "dign": 1737,
      "fishes": 1738,
      "gy": 1739,
      "gas": 1740,
      "gro": 1741,
      "gloo": 1742,
      "gles": 1743,
      "hor": 1744,
      "iant": 1745,
      "ires": 1746,
      "kno": 1747,
      "lat": 1748,
      "line": 1749,
      "mb": 1750,
      "os": 1751,
      "ove": 1752,
      "ps": 1753,
      "prou": 1754,
      "sl": 1755,
      "sle": 1756,
      "sir": 1757,
      "sort": 1758,
      "tu": 1759,
      "var": 1760,
      "wound": 1761,
      "wide": 1762,
      "want": 1763,
      "relie": 1764,
      "reins": 1765,
      "inv": 1766,
      "inte": 1767,
      "attra": 1768,
      "arch": 1769,
      "ask": 1770,
      "asts": 1771,
      "ors": 1772,
      "orch": 1773,
      "order": 1774,
      "ener": 1775,
      "enti": 1776,
      "leaped": 1777,
      "llent": 1778,
      "separ": 1779,
      "beasts": 1780,
      "meat": 1781,
      "meant": 1782,
      "adm": 1783,
      "ades": 1784,
      "oward": 1785,
      "rose": 1786,
      "nodd": 1787,
      "char": 1788,
      "chair": 1789,
      "chief": 1790,
      "imag": 1791,
      "sage": 1792,
      "rible": 1793,
      "forward": 1794,
      "lives": 1795,
      "tired": 1796,
      "pet": 1797,
      "othing": 1798,
      "neath": 1799,
      "entered": 1800,
      "oney": 1801,
      "above": 1802,
      "susp": 1803,
      "outside": 1804,
      "wheels": 1805,
      "moving": 1806,
      "dev": 1807,
      "shes": 1808,
      "grown": 1809,
      "terror": 1810,
      "urely": 1811,
      "ages": 1812,
      "ourselves": 1813,
      "doing": 1814,
      "bus": 1815,
      "bushes": 1816,
      "feat": 1817,
      "point": 1818,
      "exc": 1819,
      "planted": 1820,
      "anging": 1821,
      "consid": 1822,
      "content": 1823,
      "tem": 1824,
      "test": 1825,
      "answer": 1826,
      "getting": 1827,
      "hoof": 1828,
      "spir": 1829,
      "spread": 1830,
      "comes": 1831,
      "proved": 1832,
      "probably": 1833,
      "throng": 1834,
      "wore": 1835,
      "worry": 1836,
      "presence": 1837,
      "perform": 1838,
      "scene": 1839,
      "eye": 1840,
      "claws": 1841,
      "faces": 1842,
      "countries": 1843,
      "inkled": 1844,
      "Gargoyle": 1845,
      "bling": 1846,
      "breathe": 1847,
      "clever": 1848,
      "surround": 1849,
      "five": 1850,
      "ftly": 1851,
      "rocky": 1852,
      "die": 1853,
      "dress": 1854,
      "dressed": 1855,
      "underneath": 1856,
      "travel": 1857,
      "stones": 1858,
      "ING": 1859,
      "speech": 1860,
      "ugly": 1861,
      "realize": 1862,
      "gracious": 1863,
      "gravely": 1864,
      "advanced": 1865,
      "flut": 1866,
      "flesh": 1867,
      "smaller": 1868,
      "stretched": 1869,
      "doors": 1870,
      "circle": 1871,
      "harm": 1872,
      "desc": 1873,
      "istened": 1874,
      "position": 1875,
      "nerv": 1876,
      "wait": 1877,
      "steps": 1878,
      "crowd": 1879,
      "sides": 1880,
      "party": 1881,
      "remained": 1882,
      "adventures": 1883,
      "matter": 1884,
      "sprang": 1885,
      "bird": 1886,
      "birds": 1887,
      "dinner": 1888,
      "Witch": 1889,
      "Witches": 1890,
      "sorry": 1891,
      "examine": 1892,
      "ALL": 1893,
      "IGHT": 1894,
      "foot": 1895,
      "squeal": 1896,
      "success": 1897,
      "curious": 1898,
      "delicious": 1899,
      "quickly": 1900,
      "hours": 1901,
      "struck": 1902,
      "comfort": 1903,
      "servants": 1904,
      "brooks": 1905,
      "passage": 1906,
      "excellent": 1907,
      "scattered": 1908,
      "pieces": 1909,
      "Also": 1910,
      "square": 1911,
      "atural": 1912,
      "attack": 1913,
      "ordinary": 1914,
      "accident": 1915,
      "conscience": 1916,
      "object": 1917,
      "DOROTH": 1918,
      "Gurgles": 1919,
      "Hungry": 1920,
      "Jellia": 1921,
      "coura": 1922,
      "interest": 1923,
      "consider": 1924,
      "DOROTHY": 1925,
      "AB": 1926,
      "Coward": 1927,
      "Every": 1928,
      "Fo": 1929,
      "Gwi": 1930,
      "Have": 1931,
      "ID": 1932,
      "IS": 1933,
      "Isn": 1934,
      "KE": 1935,
      "PR": 1936,
      "Pit": 1937,
      "Su": 1938,
      "Ste": 1939,
      "TO": 1940,
      "Vines": 1941,
      "Your": 1942,
      "ack": 1943,
      "ail": 1944,
      "ahead": 1945,
      "bing": 1946,
      "blo": 1947,
      "bald": 1948,
      "book": 1949,
      "brill": 1950,
      "cy": 1951,
      "cry": 1952,
      "dred": 1953,
      "ele": 1954,
      "eight": 1955,
      "erer": 1956,
      "emer": 1957,
      "emerald": 1958,
      "hing": 1959,
      "hanging": 1960,
      "ik": 1961,
      "ives": 1962,
      "ker": 1963,
      "killed": 1964,
      "lad": 1965,
      "lish": 1966,
      "listened": 1967,
      "mon": 1968,
      "mur": 1969,
      "mine": 1970,
      "mies": 1971,
      "nar": 1972,
      "num": 1973,
      "named": 1974,
      "pin": 1975,
      "pid": 1976,
      "pic": 1977,
      "paw": 1978,
      "rat": 1979,
      "rust": 1980,
      "ride": 1981,
      "rance": 1982,
      "sigh": 1983,
      "ture": 1984,
      "uff": 1985,
      "vic": 1986,
      "vio": 1987,
      "win": 1988,
      "wink": 1989,
      "yra": 1990,
      "resp": 1991,
      "rect": 1992,
      "inha": 1993,
      "incl": 1994,
      "oured": 1995,
      "thir": 1996,
      "thinking": 1997,
      "tors": 1998,
      "eri": 1999,
      "erted": 2000,
      "arched": 2001,
      "leaned": 2002,
      "sec": 2003,
      "seated": 2004,
      "stay": 2005,
      "stout": 2006,
      "stared": 2007,
      "meal": 2008,
      "alive": 2009,
      "iron": 2010,
      "wasn": 2011,
      "som": 2012,
      "espe": 2013,
      "saved": 2014,
      "oom": 2015,
      "rib": 2016,
      "forgot": 2017,
      "unable": 2018,
      "unknown": 2019,
      "unusu": 2020,
      "within": 2021,
      "cage": 2022,
      "tily": 2023,
      "ounted": 2024,
      "rapid": 2025,
      "neck": 2026,
      "necess": 2027,
      "haven": 2028,
      "enter": 2029,
      "entrance": 2030,
      "cover": 2031,
      "ably": 2032,
      "ables": 2033,
      "itted": 2034,
      "herself": 2035,
      "death": 2036,
      "shut": 2037,
      "shout": 2038,
      "grand": 2039,
      "grun": 2040,
      "ago": 2041,
      "oppos": 2042,
      "uring": 2043,
      "gold": 2044,
      "posing": 2045,
      "nowled": 2046,
      "ified": 2047,
      "using": 2048,
      "exactly": 2049,
      "earnest": 2050,
      "ggle": 2051,
      "maid": 2052,
      "anyhow": 2053,
      "anged": 2054,
      "constantly": 2055,
      "loose": 2056,
      "inded": 2057,
      "whole": 2058,
      "discover": 2059,
      "spark": 2060,
      "proceed": 2061,
      "thrust": 2062,
      "lighted": 2063,
      "reak": 2064,
      "scre": 2065,
      "scrat": 2066,
      "icul": 2067,
      "plex": 2068,
      "smiling": 2069,
      "places": 2070,
      "growled": 2071,
      "firm": 2072,
      "cheer": 2073,
      "fier": 2074,
      "everything": 2075,
      "satis": 2076,
      "diam": 2077,
      "however": 2078,
      "watch": 2079,
      "watched": 2080,
      "stories": 2081,
      "clock": 2082,
      "pulled": 2083,
      "speak": 2084,
      "dragons": 2085,
      "balls": 2086,
      "hundred": 2087,
      "attend": 2088,
      "enemy": 2089,
      "velve": 2090,
      "running": 2091,
      "ESS": 2092,
      "snap": 2093,
      "moments": 2094,
      "hesit": 2095,
      "posed": 2096,
      "waited": 2097,
      "softly": 2098,
      "trying": 2099,
      "dama": 2100,
      "shaking": 2101,
      "stuck": 2102,
      "shot": 2103,
      "adventurers": 2104,
      "tails": 2105,
      "prisoners": 2106,
      "match": 2107,
      "notice": 2108,
      "crush": 2109,
      "human": 2110,
      "paths": 2111,
      "leather": 2112,
      "leaves": 2113,
      "stern": 2114,
      "belonged": 2115,
      "compan": 2116,
      "Thank": 2117,
      "occup": 2118,
      "sorcer": 2119,
      "spoke": 2120,
      "explained": 2121,
      "dragonette": 2122,
      "middle": 2123,
      "wanderer": 2124,
      "rubbed": 2125,
      "driven": 2126,
      "whisk": 2127,
      "whispered": 2128,
      "delighted": 2129,
      "points": 2130,
      "surprise": 2131,
      "certainly": 2132,
      "minute": 2133,
      "minutes": 2134,
      "BLE": 2135,
      "OZMA": 2136,
      "braided": 2137,
      "swiftly": 2138,
      "touched": 2139,
      "anxious": 2140,
      "import": 2141,
      "nearer": 2142,
      "beginning": 2143,
      "cially": 2144,
      "tumbled": 2145,
      "fortune": 2146,
      "subje": 2147,
      "further": 2148,
      "dozen": 2149,
      "trotted": 2150,
      "yawning": 2151,
      "rainbow": 2152,
      "expression": 2153,
      "powerful": 2154,
      "Highness": 2155,
      "difficul": 2156,
      "later": 2157,
      "proud": 2158,
      "admir": 2159,
      "imagine": 2160,
      "devour": 2161,
      "contented": 2162,
      "hoofs": 2163,
      "nervous": 2164,
      "Cowardly": 2165,
      "Gwig": 2166,
      "acknowled": 2167,
      "brilliant": 2168,
      "hinges": 2169,
      "narrow": 2170,
      "picture": 2171,
      "yramid": 2172,
      "inhabit": 2173,
      "third": 2174,
      "especially": 2175,
      "unusual": 2176,
      "rapidly": 2177,
      "necessary": 2178,
      "opposite": 2179,
      "earnestly": 2180,
      "wanderers": 2181,
      ",'": 2182,
      ".'": 2183,
      "13": 2184,
      "17": 2185,
      "AC": 2186,
      "AU": 2187,
      "Bug": 2188,
      "Cab": 2189,
      "Could": 2190,
      "Count": 2191,
      "Cling": 2192,
      "Dear": 2193,
      "DER": 2194,
      "DEN": 2195,
      "FR": 2196,
      "Gid": 2197,
      "Gard": 2198,
      "Gener": 2199,
      "LL": 2200,
      "Mo": 2201,
      "Many": 2202,
      "Mountain": 2203,
      "Neither": 2204,
      "OM": 2205,
      "OY": 2206,
      "Pe": 2207,
      "Pyramid": 2208,
      "Room": 2209,
      "Sup": 2210,
      "Sever": 2211,
      "Slowly": 2212,
      "Tho": 2213,
      "VE": 2214,
      "Wo": 2215,
      "Wick": 2216,
      "band": 2217,
      "bas": 2218,
      "bent": 2219,
      "bers": 2220,
      "bbed": 2221,
      "batt": 2222,
      "bene": 2223,
      "banks": 2224,
      "boney": 2225,
      "cti": 2226,
      "crep": 2227,
      "cross": 2228,
      "den": 2229,
      "ding": 2230,
      "dap": 2231,
      "dash": 2232,
      "ets": 2233,
      "fre": 2234,
      "fing": 2235,
      "fli": 2236,
      "free": 2237,
      "fran": 2238,
      "ges": 2239,
      "gent": 2240,
      "gown": 2241,
      "gently": 2242,
      "hit": 2243,
      "ier": 2244,
      "ials": 2245,
      "ls": 2246,
      "lun": 2247,
      "lay": 2248,
      "luck": 2249,
      "main": 2250,
      "mount": 2251,
      "mpered": 2252,
      "mounted": 2253,
      "ol": 2254,
      "oats": 2255,
      "pa": 2256,
      "ph": 2257,
      "pped": 2258,
      "poured": 2259,
      "rid": 2260,
      "rone": 2261,
      "sis": 2262,
      "sme": 2263,
      "sitt": 2264,
      "sens": 2265,
      "sense": 2266,
      "ssom": 2267,
      "tly": 2268,
      "tree": 2269,
      "uc": 2270,
      "ud": 2271,
      "ull": 2272,
      "ually": 2273,
      "vast": 2274,
      "vage": 2275,
      "vines": 2276,
      "wn": 2277,
      "zz": 2278,
      "anch": 2279,
      "angry": 2280,
      "reg": 2281,
      "repe": 2282,
      "resumed": 2283,
      "ining": 2284,
      "init": 2285,
      "instead": 2286,
      "tons": 2287,
      "atmeal": 2288,
      "onder": 2289,
      "ering": 2290,
      "arr": 2291,
      "aring": 2292,
      "ase": 2293,
      "ashed": 2294,
      "assure": 2295,
      "asol": 2296,
      "ordered": 2297,
      "enclo": 2298,
      "leaf": 2299,
      "level": 2300,
      "learned": 2301,
      "lls": 2302,
      "sele": 2303,
      "stree": 2304,
      "beheld": 2305,
      "merely": 2306,
      "cei": 2307,
      "idges": 2308,
      "weight": 2309,
      "weigh": 2310,
      "lying": 2311,
      "alone": 2312,
      "altogether": 2313,
      "veg": 2314,
      "rolled": 2315,
      "rodu": 2316,
      "rolling": 2317,
      "chance": 2318,
      "charm": 2319,
      "Their": 2320,
      "sawhorse": 2321,
      "savage": 2322,
      "ool": 2323,
      "rily": 2324,
      "living": 2325,
      "uni": 2326,
      "uneasily": 2327,
      "unharness": 2328,
      "caut": 2329,
      "history": 2330,
      "pets": 2331,
      "peach": 2332,
      "upward": 2333,
      "ents": 2334,
      "enty": 2335,
      "costu": 2336,
      "absur": 2337,
      "ainted": 2338,
      "ket": 2339,
      "buttons": 2340,
      "lace": 2341,
      "demanded": 2342,
      "manu": 2343,
      "manage": 2344,
      "shif": 2345,
      "gras": 2346,
      "grate": 2347,
      "terrible": 2348,
      "myster": 2349,
      "ures": 2350,
      "lose": 2351,
      "loving": 2352,
      "agn": 2353,
      "amuse": 2354,
      "quis": 2355,
      "opened": 2356,
      "feren": 2357,
      "owned": 2358,
      "ender": 2359,
      "pota": 2360,
      "oughly": 2361,
      "willingly": 2362,
      "ext": 2363,
      "exper": 2364,
      "ety": 2365,
      "earing": 2366,
      "idea": 2367,
      "plants": 2368,
      "makes": 2369,
      "anyone": 2370,
      "anywhere": 2371,
      "acce": 2372,
      "ruled": 2373,
      "rushed": 2374,
      "conque": 2375,
      "temp": 2376,
      "tage": 2377,
      "takes": 2378,
      "holes": 2379,
      "downward": 2380,
      "yours": 2381,
      "greater": 2382,
      "discoura": 2383,
      "piggy": 2384,
      "kingdom": 2385,
      "spires": 2386,
      "produ": 2387,
      "THEY": 2388,
      "string": 2389,
      "clu": 2390,
      "clust": 2391,
      "clung": 2392,
      "clothing": 2393,
      "comic": 2394,
      "commen": 2395,
      "worn": 2396,
      "mured": 2397,
      "reminded": 2398,
      "perm": 2399,
      "perfect": 2400,
      "perplex": 2401,
      "ump": 2402,
      "voices": 2403,
      "greet": 2404,
      "dragged": 2405,
      "pless": 2406,
      "Nome": 2407,
      "whatever": 2408,
      "smiled": 2409,
      "smile": 2410,
      "bigger": 2411,
      "ments": 2412,
      "bring": 2413,
      "bridges": 2414,
      "fied": 2415,
      "merry": 2416,
      "broken": 2417,
      "handsome": 2418,
      "quiet": 2419,
      "happy": 2420,
      "rested": 2421,
      "understand": 2422,
      "beautifully": 2423,
      "trave": 2424,
      "landing": 2425,
      "ARE": 2426,
      "INC": 2427,
      "puzz": 2428,
      "ease": 2429,
      "easy": 2430,
      "craw": 2431,
      "silk": 2432,
      "silver": 2433,
      "yester": 2434,
      "intend": 2435,
      "intru": 2436,
      "intently": 2437,
      "introdu": 2438,
      "grace": 2439,
      "grabbed": 2440,
      "carved": 2441,
      "helped": 2442,
      "helpless": 2443,
      "skin": 2444,
      "enemies": 2445,
      "stream": 2446,
      "dears": 2447,
      "drawn": 2448,
      "Only": 2449,
      "snar": 2450,
      "knives": 2451,
      "decide": 2452,
      "stepped": 2453,
      "casion": 2454,
      "talking": 2455,
      "truth": 2456,
      "lantern": 2457,
      "damas": 2458,
      "damage": 2459,
      "parasol": 2460,
      "shaped": 2461,
      "shod": 2462,
      "remaining": 2463,
      "plates": 2464,
      "personage": 2465,
      "iness": 2466,
      "shoulder": 2467,
      "jump": 2468,
      "scampered": 2469,
      "Before": 2470,
      "Throne": 2471,
      "marvel": 2472,
      "occasion": 2473,
      "spot": 2474,
      "heartless": 2475,
      "corners": 2476,
      "dangerous": 2477,
      "foolish": 2478,
      "guess": 2479,
      "kindly": 2480,
      "magical": 2481,
      "nicely": 2482,
      "priv": 2483,
      "pricked": 2484,
      "suppose": 2485,
      "superi": 2486,
      "hearts": 2487,
      "succeed": 2488,
      "clearly": 2489,
      "father": 2490,
      "iot": 2491,
      "delic": 2492,
      "played": 2493,
      "touch": 2494,
      "treated": 2495,
      "anxiously": 2496,
      "injured": 2497,
      "thickly": 2498,
      "nearest": 2499,
      "presently": 2500,
      "doubtfully": 2501,
      "trembled": 2502,
      "cottage": 2503,
      "motionless": 2504,
      "amazed": 2505,
      "brains": 2506,
      "dainty": 2507,
      "finally": 2508,
      "famous": 2509,
      "pati": 2510,
      "beyond": 2511,
      "allowed": 2512,
      "buildings": 2513,
      "polite": 2514,
      "Munchkin": 2515,
      "dignity": 2516,
      "knocked": 2517,
      "orchards": 2518,
      "nodding": 2519,
      "chariot": 2520,
      "chairs": 2521,
      "suspended": 2522,
      "spiral": 2523,
      "comfortably": 2524,
      "Everything": 2525,
      "Steward": 2526,
      "blossom": 2527,
      "murmured": 2528,
      "rustles": 2529,
      "violet": 2530,
      "maiden": 2531,
      "cheerfully": 2532,
      "hesitated": 2533,
      "sorcery": 2534,
      "subjects": 2535,
      "Country": 2536,
      "Clinging": 2537,
      "Garden": 2538,
      "People": 2539,
      "Suppose": 2540,
      "Several": 2541,
      "Those": 2542,
      "Woggle": 2543,
      "Wicked": 2544,
      "basket": 2545,
      "battle": 2546,
      "beneath": 2547,
      "crept": 2548,
      "gentle": 2549,
      "sitting": 2550,
      "initials": 2551,
      "streets": 2552,
      "costume": 2553,
      "absurd": 2554,
      "potato": 2555,
      "conquered": 2556,
      "discouraged": 2557,
      "comical": 2558,
      "commenced": 2559,
      "yesterday": 2560,
      "superior": 2561,
      ".,": 2562,
      "10": 2563,
      "12": 2564,
      "14": 2565,
      "16": 2566,
      "19": 2567,
      "AG": 2568,
      "AI": 2569,
      "AS": 2570,
      "Austr": 2571,
      "AIN": 2572,
      "AKE": 2573,
      "BY": 2574,
      "BRA": 2575,
      "BAU": 2576,
      "Ch": 2577,
      "CAP": 2578,
      "DAN": 2579,
      "DRA": 2580,
      "Even": 2581,
      "Fir": 2582,
      "FIGHT": 2583,
      "Go": 2584,
      "Great": 2585,
      "Gill": 2586,
      "GER": 2587,
      "GAR": 2588,
      "GON": 2589,
      "GAB": 2590,
      "GOY": 2591,
      "Gump": 2592,
      "Ha": 2593,
      "Hal": 2594,
      "HOR": 2595,
      "Hearing": 2596,
      "IBLE": 2597,
      "Jam": 2598,
      "KS": 2599,
      "Look": 2600,
      "LES": 2601,
      "LET": 2602,
      "May": 2603,
      "NE": 2604,
      "Nons": 2605,
      "OL": 2606,
      "OW": 2607,
      "Other": 2608,
      "Oma": 2609,
      "PY": 2610,
      "Pro": 2611,
      "PIG": 2612,
      "PIT": 2613,
      "RIGHT": 2614,
      "SE": 2615,
      "St": 2616,
      "Stop": 2617,
      "UN": 2618,
      "US": 2619,
      "VIS": 2620,
      "Wink": 2621,
      "WON": 2622,
      "Yet": 2623,
      "bid": 2624,
      "boo": 2625,
      "bli": 2626,
      "bout": 2627,
      "blow": 2628,
      "bble": 2629,
      "bade": 2630,
      "bbled": 2631,
      "bench": 2632,
      "cing": 2633,
      "cit": 2634,
      "cher": 2635,
      "cast": 2636,
      "cows": 2637,
      "done": 2638,
      "dared": 2639,
      "daz": 2640,
      "ef": 2641,
      "em": 2642,
      "ez": 2643,
      "eth": 2644,
      "equ": 2645,
      "ement": 2646,
      "emp": 2647,
      "erect": 2648,
      "fer": 2649,
      "fit": 2650,
      "fra": 2651,
      "fig": 2652,
      "fted": 2653,
      "flight": 2654,
      "fris": 2655,
      "faster": 2656,
      "ga": 2657,
      "gor": 2658,
      "gle": 2659,
      "glitt": 2660,
      "glow": 2661,
      "gue": 2662,
      "gates": 2663,
      "hill": 2664,
      "hook": 2665,
      "ian": 2666,
      "ial": 2667,
      "ired": 2668,
      "iety": 2669,
      "jar": 2670,
      "jail": 2671,
      "kis": 2672,
      "kly": 2673,
      "knot": 2674,
      "lle": 2675,
      "lim": 2676,
      "lone": 2677,
      "lang": 2678,
      "lings": 2679,
      "ming": 2680,
      "mus": 2681,
      "mous": 2682,
      "mice": 2683,
      "morn": 2684,
      "master": 2685,
      "magn": 2686,
      "ni": 2687,
      "natural": 2688,
      "odd": 2689,
      "obey": 2690,
      "oatmeal": 2691,
      "pes": 2692,
      "pay": 2693,
      "pare": 2694,
      "pound": 2695,
      "past": 2696,
      "ral": 2697,
      "rup": 2698,
      "sy": 2699,
      "sit": 2700,
      "shad": 2701,
      "siz": 2702,
      "smo": 2703,
      "sorcerer": 2704,
      "size": 2705,
      "tr": 2706,
      "ten": 2707,
      "twi": 2708,
      "tough": 2709,
      "tast": 2710,
      "tears": 2711,
      "task": 2712,
      "tages": 2713,
      "tender": 2714,
      "uage": 2715,
      "vy": 2716,
      "venture": 2717,
      "vals": 2718,
      "worse": 2719,
      "wns": 2720,
      "wished": 2721,
      "wanted": 2722,
      "warm": 2723,
      "warned": 2724,
      "heaped": 2725,
      "thered": 2726,
      "resc": 2727,
      "resent": 2728,
      "recent": 2729,
      "resol": 2730,
      "request": 2731,
      "inno": 2732,
      "inter": 2733,
      "intell": 2734,
      "inning": 2735,
      "thor": 2736,
      "thous": 2737,
      "today": 2738,
      "atter": 2739,
      "ones": 2740,
      "onds": 2741,
      "erable": 2742,
      "army": 2743,
      "asted": 2744,
      "orted": 2745,
      "orrow": 2746,
      "ormous": 2747,
      "enjoy": 2748,
      "enormous": 2749,
      "isted": 2750,
      "llar": 2751,
      "llers": 2752,
      "iting": 2753,
      "sem": 2754,
      "ses": 2755,
      "stal": 2756,
      "stup": 2757,
      "stick": 2758,
      "station": 2759,
      "stance": 2760,
      "streak": 2761,
      "beare": 2762,
      "beating": 2763,
      "bells": 2764,
      "mel": 2765,
      "met": 2766,
      "address": 2767,
      "adlings": 2768,
      "wee": 2769,
      "weap": 2770,
      "week": 2771,
      "ali": 2772,
      "alds": 2773,
      "alarm": 2774,
      "alia": 2775,
      "roar": 2776,
      "wild": 2777,
      "noon": 2778,
      "novel": 2779,
      "cham": 2780,
      "impre": 2781,
      "impossible": 2782,
      "imitation": 2783,
      "imposing": 2784,
      "soles": 2785,
      "sober": 2786,
      "cker": 2787,
      "forks": 2788,
      "former": 2789,
      "forbid": 2790,
      "liked": 2791,
      "liged": 2792,
      "lips": 2793,
      "lifted": 2794,
      "unexpected": 2795,
      "caused": 2796,
      "tire": 2797,
      "geous": 2798,
      "peace": 2799,
      "rail": 2800,
      "neither": 2801,
      "sured": 2802,
      "move": 2803,
      "moist": 2804,
      "fused": 2805,
      "igree": 2806,
      "igns": 2807,
      "lap": 2808,
      "devo": 2809,
      "defeat": 2810,
      "shine": 2811,
      "shrill": 2812,
      "shud": 2813,
      "gray": 2814,
      "gruff": 2815,
      "grinning": 2816,
      "tering": 2817,
      "lots": 2818,
      "agree": 2819,
      "ample": 2820,
      "domed": 2821,
      "quar": 2822,
      "buck": 2823,
      "bore": 2824,
      "board": 2825,
      "oping": 2826,
      "feared": 2827,
      "whip": 2828,
      "seeing": 2829,
      "ending": 2830,
      "ific": 2831,
      "exp": 2832,
      "extra": 2833,
      "exquis": 2834,
      "hedge": 2835,
      "plate": 2836,
      "plenty": 2837,
      "mach": 2838,
      "acqu": 2839,
      "account": 2840,
      "somebody": 2841,
      "conf": 2842,
      "contain": 2843,
      "consumed": 2844,
      "assist": 2845,
      "asserted": 2846,
      "repro": 2847,
      "teeth": 2848,
      "whom": 2849,
      "likely": 2850,
      "antly": 2851,
      "THR": 2852,
      "hot": 2853,
      "yourself": 2854,
      "useful": 2855,
      "dish": 2856,
      "disting": 2857,
      "spite": 2858,
      "thank": 2859,
      "forever": 2860,
      "prote": 2861,
      "protest": 2862,
      "itement": 2863,
      "headed": 2864,
      "cloud": 2865,
      "pedigree": 2866,
      "comple": 2867,
      "complain": 2868,
      "command": 2869,
      "commanded": 2870,
      "ations": 2871,
      "goodness": 2872,
      "umb": 2873,
      "backed": 2874,
      "readers": 2875,
      "greed": 2876,
      "scra": 2877,
      "scorn": 2878,
      "justice": 2879,
      "created": 2880,
      "Any": 2881,
      "Sorcerers": 2882,
      "ctly": 2883,
      "cally": 2884,
      "blinking": 2885,
      "blades": 2886,
      "visi": 2887,
      "visit": 2888,
      "brow": 2889,
      "lessly": 2890,
      "childish": 2891,
      "Saw": 2892,
      "Said": 2893,
      "cheon": 2894,
      "floated": 2895,
      "floating": 2896,
      "ddled": 2897,
      "staring": 2898,
      "starved": 2899,
      "brother": 2900,
      "fasten": 2901,
      "thoughtful": 2902,
      "satin": 2903,
      "serve": 2904,
      "seriously": 2905,
      "telling": 2906,
      "div": 2907,
      "watching": 2908,
      "landed": 2909,
      "stone": 2910,
      "ARS": 2911,
      "ARRI": 2912,
      "INTO": 2913,
      "INVIS": 2914,
      "pull": 2915,
      "publi": 2916,
      "openings": 2917,
      "wonderingly": 2918,
      "hunting": 2919,
      "hunger": 2920,
      "sunshine": 2921,
      "silence": 2922,
      "silently": 2923,
      "yell": 2924,
      "ptly": 2925,
      "ptured": 2926,
      "singular": 2927,
      "sently": 2928,
      "attached": 2929,
      "needed": 2930,
      "plainly": 2931,
      "flat": 2932,
      "flood": 2933,
      "flanks": 2934,
      "mischief": 2935,
      "mistakes": 2936,
      "miserable": 2937,
      "skill": 2938,
      "skull": 2939,
      "ddenly": 2940,
      "ANK": 2941,
      "central": 2942,
      "garden": 2943,
      "sett": 2944,
      "pockets": 2945,
      "breathless": 2946,
      "ESCAP": 2947,
      "Toto": 2948,
      "obliged": 2949,
      "sniff": 2950,
      "wrinkled": 2951,
      "saying": 2952,
      "designs": 2953,
      "halves": 2954,
      "tongu": 2955,
      "hurry": 2956,
      "wake": 2957,
      "arrival": 2958,
      "arrivals": 2959,
      "straw": 2960,
      "keeps": 2961,
      "keeping": 2962,
      "Does": 2963,
      "fairly": 2964,
      "distre": 2965,
      "flowed": 2966,
      "flower": 2967,
      "hardly": 2968,
      "parts": 2969,
      "stuff": 2970,
      "shoes": 2971,
      "fruits": 2972,
      "names": 2973,
      "startled": 2974,
      "condition": 2975,
      "conduc": 2976,
      "prisoner": 2977,
      "sounds": 2978,
      "sprout": 2979,
      "sprinkled": 2980,
      "baby": 2981,
      "huge": 2982,
      "scape": 2983,
      "suggestions": 2984,
      "circled": 2985,
      "curs": 2986,
      "darkness": 2987,
      "kicked": 2988,
      "kicking": 2989,
      "marble": 2990,
      "powers": 2991,
      "promptly": 2992,
      "windows": 2993,
      "astonish": 2994,
      "safely": 2995,
      "laughing": 2996,
      "examined": 2997,
      "directly": 2998,
      "OUT": 2999,
      "mouthful": 3000,
      "squeez": 3001,
      "wandered": 3002,
      "holding": 3003,
      "closely": 3004,
      "curiously": 3005,
      "OOS": 3006,
      "crash": 3007,
      "drove": 3008,
      "engers": 3009,
      "unnatural": 3010,
      "pointed": 3011,
      "surprised": 3012,
      "BLAC": 3013,
      "braids": 3014,
      "injur": 3015,
      "striped": 3016,
      "noses": 3017,
      "servant": 3018,
      "Quite": 3019,
      "Quadlings": 3020,
      "evil": 3021,
      "wearing": 3022,
      "fortunately": 3023,
      "cottages": 3024,
      "amazement": 3025,
      "badly": 3026,
      "brightly": 3027,
      "eagerly": 3028,
      "family": 3029,
      "hastened": 3030,
      "prepared": 3031,
      "swarm": 3032,
      "enchanted": 3033,
      "advised": 3034,
      "advisors": 3035,
      "color": 3036,
      "building": 3037,
      "flames": 3038,
      "destroyed": 3039,
      "Munchkins": 3040,
      "calmly": 3041,
      "BEARS": 3042,
      "MANGAB": 3043,
      "Presently": 3044,
      "groaned": 3045,
      "gloom": 3046,
      "gloomy": 3047,
      "horrid": 3048,
      "mbi": 3049,
      "osene": 3050,
      "tucked": 3051,
      "variety": 3052,
      "relief": 3053,
      "relieved": 3054,
      "entirely": 3055,
      "separate": 3056,
      "separated": 3057,
      "busily": 3058,
      "features": 3059,
      "excitement": 3060,
      "temper": 3061,
      "tempt": 3062,
      "flutters": 3063,
      "Follow": 3064,
      "IDED": 3065,
      "PRINC": 3066,
      "Suddenly": 3067,
      "eleph": 3068,
      "emeralds": 3069,
      "ikins": 3070,
      "kerosene": 3071,
      "lady": 3072,
      "ribbon": 3073,
      "forgotten": 3074,
      "sparkling": 3075,
      "scratch": 3076,
      "fierce": 3077,
      "diamonds": 3078,
      "attendants": 3079,
      "velvet": 3080,
      "snapped": 3081,
      "sternly": 3082,
      "whiskers": 3083,
      "important": 3084,
      "admiration": 3085,
      "acknowledged": 3086,
      "Couldn": 3087,
      "FRANK": 3088,
      "General": 3089,
      "Mombi": 3090,
      "fresh": 3091,
      "finger": 3092,
      "hitched": 3093,
      "luncheon": 3094,
      "sensible": 3095,
      "regular": 3096,
      "repeated": 3097,
      "arranged": 3098,
      "selected": 3099,
      "ceived": 3100,
      "uniforms": 3101,
      "unharnessed": 3102,
      "caution": 3103,
      "manufact": 3104,
      "shifting": 3105,
      "ference": 3106,
      "experience": 3107,
      "tempted": 3108,
      "club": 3109,
      "clustered": 3110,
      "permitted": 3111,
      "perplexity": 3112,
      "travellers": 3113,
      "puzzled": 3114,
      "crawl": 3115,
      "introduced": 3116,
      "marvelous": 3117,
      "succeeded": 3118,
      "delicate": 3119,
      "patient": 3120,
      "Australia": 3121,
      "BRAIDED": 3122,
      "BAUM": 3123,
      "DANGER": 3124,
      "DRAGON": 3125,
      "First": 3126,
      "Gillikins": 3127,
      "GARGOY": 3128,
      "Half": 3129,
      "HORSE": 3130,
      "Jamb": 3131,
      "Nonsense": 3132,
      "Omaha": 3133,
      "PIGLET": 3134,
      "Winkies": 3135,
      "WONDER": 3136,
      "effect": 3137,
      "empty": 3138,
      "figure": 3139,
      "glowing": 3140,
      "guest": 3141,
      "limb": 3142,
      "lonely": 3143,
      "language": 3144,
      "morning": 3145,
      "magnific": 3146,
      "paren": 3147,
      "twice": 3148,
      "taste": 3149,
      "rescue": 3150,
      "resolved": 3151,
      "intellig": 3152,
      "thousand": 3153,
      "bearers": 3154,
      "addressing": 3155,
      "novelty": 3156,
      "unexpectedly": 3157,
      "exquisite": 3158,
      "distingu": 3159,
      "INVISIBLE": 3160,
      "public": 3161,
      "tongues": 3162,
      "conductor": 3163,
      "BLACK": 3164,
      "MANGABOOS": 3165,
      "PRINCESS": 3166,
      "GARGOYLES": 3167,
      "08": 3168,
      "11": 3169,
      "15": 3170,
      "18": 3171,
      "20": 3172,
      "23": 3173,
      "?--": 3174,
      "AT": 3175,
      "Ah": 3176,
      "Am": 3177,
      "Ar": 3178,
      "Ath": 3179,
      "Amer": 3180,
      "Around": 3181,
      "ABLE": 3182,
      "About": 3183,
      "Ba": 3184,
      "Bu": 3185,
      "Band": 3186,
      "CL": 3187,
      "CO": 3188,
      "Che": 3189,
      "Cer": 3190,
      "Cap": 3191,
      "CIT": 3192,
      "Cloud": 3193,
      "Chop": 3194,
      "CAB": 3195,
      "Cali": 3196,
      "DS": 3197,
      "Dig": 3198,
      "DOM": 3199,
      "EA": 3200,
      "EX": 3201,
      "EY": 3202,
      "Each": 3203,
      "EAR": 3204,
      "EET": 3205,
      "FL": 3206,
      "FU": 3207,
      "Far": 3208,
      "From": 3209,
      "Fair": 3210,
      "Fish": 3211,
      "FOR": 3212,
      "FRI": 3213,
      "GH": 3214,
      "GL": 3215,
      "Gl": 3216,
      "Give": 3217,
      "GET": 3218,
      "GIC": 3219,
      "Im": 3220,
      "Ian": 3221,
      "ILL": 3222,
      "Kent": 3223,
      "KING": 3224,
      "LT": 3225,
      "LY": 3226,
      "Loo": 3227,
      "Mother": 3228,
      "MID": 3229,
      "MEET": 3230,
      "Nor": 3231,
      "None": 3232,
      "Nick": 3233,
      "NIN": 3234,
      "Nothing": 3235,
      "Next": 3236,
      "Old": 3237,
      "Over": 3238,
      "OIC": 3239,
      "OVE": 3240,
      "Ple": 3241,
      "PIC": 3242,
      "QU": 3243,
      "Ranch": 3244,
      "Se": 3245,
      "Sid": 3246,
      "SOR": 3247,
      "Surely": 3248,
      "Ta": 3249,
      "TIN": 3250,
      "TES": 3251,
      "Take": 3252,
      "TOO": 3253,
      "Tell": 3254,
      "Tik": 3255,
      "UT": 3256,
      "VAL": 3257,
      "VALL": 3258,
      "VOIC": 3259,
      "WH": 3260,
      "Wat": 3261,
      "WOO": 3262,
      "Wonder": 3263,
      "_is": 3264,
      "_one": 3265,
      "au": 3266,
      "ax": 3267,
      "aid": 3268,
      "aught": 3269,
      "akes": 3270,
      "avy": 3271,
      "bat": 3272,
      "ben": 3273,
      "bly": 3274,
      "bal": 3275,
      "bare": 3276,
      "bla": 3277,
      "bang": 3278,
      "bitten": 3279,
      "bite": 3280,
      "barri": 3281,
      "brace": 3282,
      "bank": 3283,
      "bborn": 3284,
      "bbing": 3285,
      "coun": 3286,
      "cort": 3287,
      "cise": 3288,
      "crou": 3289,
      "cook": 3290,
      "dir": 3291,
      "dut": 3292,
      "dust": 3293,
      "dif": 3294,
      "ders": 3295,
      "dart": 3296,
      "dwell": 3297,
      "dug": 3298,
      "during": 3299,
      "eve": 3300,
      "fy": 3301,
      "fed": 3302,
      "fill": 3303,
      "fic": 3304,
      "fate": 3305,
      "fond": 3306,
      "fitted": 3307,
      "gall": 3308,
      "gri": 3309,
      "game": 3310,
      "hon": 3311,
      "hoo": 3312,
      "hone": 3313,
      "hug": 3314,
      "iv": 3315,
      "iver": 3316,
      "ica": 3317,
      "ican": 3318,
      "iles": 3319,
      "iately": 3320,
      "jer": 3321,
      "jung": 3322,
      "jiff": 3323,
      "kne": 3324,
      "kill": 3325,
      "ler": 3326,
      "lid": 3327,
      "late": 3328,
      "llet": 3329,
      "mit": 3330,
      "mad": 3331,
      "mam": 3332,
      "mense": 3333,
      "mile": 3334,
      "money": 3335,
      "murely": 3336,
      "miles": 3337,
      "ny": 3338,
      "nat": 3339,
      "none": 3340,
      "nished": 3341,
      "nia": 3342,
      "om": 3343,
      "por": 3344,
      "pard": 3345,
      "pra": 3346,
      "pper": 3347,
      "pave": 3348,
      "panted": 3349,
      "pond": 3350,
      "pping": 3351,
      "pile": 3352,
      "piling": 3353,
      "pride": 3354,
      "painted": 3355,
      "ring": 3356,
      "rad": 3357,
      "rough": 3358,
      "sly": 3359,
      "sal": 3360,
      "sli": 3361,
      "sway": 3362,
      "sour": 3363,
      "scare": 3364,
      "slan": 3365,
      "soup": 3366,
      "simp": 3367,
      "tw": 3368,
      "tful": 3369,
      "twent": 3370,
      "twel": 3371,
      "twink": 3372,
      "uded": 3373,
      "vent": 3374,
      "war": 3375,
      "wit": 3376,
      "wful": 3377,
      "wrest": 3378,
      "yonder": 3379,
      "zed": 3380,
      "zing": 3381,
      "heap": 3382,
      "height": 3383,
      "heavy": 3384,
      "thed": 3385,
      "rear": 3386,
      "return": 3387,
      "regre": 3388,
      "renew": 3389,
      "refle": 3390,
      "recovered": 3391,
      "regard": 3392,
      "removed": 3393,
      "retreated": 3394,
      "resem": 3395,
      "received": 3396,
      "inated": 3397,
      "infl": 3398,
      "inters": 3399,
      "threat": 3400,
      "thumb": 3401,
      "tok": 3402,
      "tossed": 3403,
      "tower": 3404,
      "onded": 3405,
      "ercise": 3406,
      "arse": 3407,
      "arts": 3408,
      "arching": 3409,
      "artic": 3410,
      "arations": 3411,
      "asha": 3412,
      "asters": 3413,
      "orange": 3414,
      "ening": 3415,
      "encount": 3416,
      "enced": 3417,
      "lest": 3418,
      "lets": 3419,
      "leap": 3420,
      "letic": 3421,
      "isting": 3422,
      "iskly": 3423,
      "lly": 3424,
      "itic": 3425,
      "sea": 3426,
      "seld": 3427,
      "session": 3428,
      "search": 3429,
      "stab": 3430,
      "stam": 3431,
      "state": 3432,
      "stately": 3433,
      "beard": 3434,
      "beings": 3435,
      "begged": 3436,
      "mere": 3437,
      "mely": 3438,
      "mered": 3439,
      "meek": 3440,
      "ceas": 3441,
      "cerem": 3442,
      "ceive": 3443,
      "ides": 3444,
      "idence": 3445,
      "weary": 3446,
      "alight": 3447,
      "already": 3448,
      "vere": 3449,
      "wire": 3450,
      "wither": 3451,
      "wigg": 3452,
      "wicked": 3453,
      "wicker": 3454,
      "ute": 3455,
      "uttering": 3456,
      "washed": 3457,
      "nobody": 3458,
      "choo": 3459,
      "chun": 3460,
      "chop": 3461,
      "chuck": 3462,
      "changed": 3463,
      "immed": 3464,
      "impolite": 3465,
      "immense": 3466,
      "sold": 3467,
      "sobbing": 3468,
      "escort": 3469,
      "sail": 3470,
      "ribe": 3471,
      "rick": 3472,
      "rift": 3473,
      "rival": 3474,
      "rified": 3475,
      "cks": 3476,
      "cking": 3477,
      "forman": 3478,
      "forget": 3479,
      "fornia": 3480,
      "lier": 3481,
      "united": 3482,
      "unches": 3483,
      "unpleasant": 3484,
      "unwelcome": 3485,
      "unhook": 3486,
      "cap": 3487,
      "captured": 3488,
      "ties": 3489,
      "tight": 3490,
      "tically": 3491,
      "pea": 3492,
      "peering": 3493,
      "ized": 3494,
      "izens": 3495,
      "raised": 3496,
      "upper": 3497,
      "upset": 3498,
      "haunches": 3499,
      "coat": 3500,
      "copper": 3501,
      "abled": 3502,
      "absence": 3503,
      "abrup": 3504,
      "sum": 3505,
      "suff": 3506,
      "aint": 3507,
      "ainly": 3508,
      "?\"]": 3509,
      "wheel": 3510,
      "laid": 3511,
      "laught": 3512,
      "lawns": 3513,
      "def": 3514,
      "dep": 3515,
      "defe": 3516,
      "demand": 3517,
      "demurely": 3518,
      "mane": 3519,
      "mann": 3520,
      "manner": 3521,
      "shing": 3522,
      "shop": 3523,
      "ship": 3524,
      "shining": 3525,
      "shiver": 3526,
      "grat": 3527,
      "grade": 3528,
      "grum": 3529,
      "log": 3530,
      "loan": 3531,
      "lore": 3532,
      "loved": 3533,
      "loves": 3534,
      "aming": 3535,
      "ambled": 3536,
      "amused": 3537,
      "amusing": 3538,
      "dog": 3539,
      "quer": 3540,
      "quant": 3541,
      "bullet": 3542,
      "boards": 3543,
      "bothered": 3544,
      "opy": 3545,
      "oped": 3546,
      "fet": 3547,
      "feed": 3548,
      "fered": 3549,
      "fellow": 3550,
      "urged": 3551,
      "canopy": 3552,
      "owner": 3553,
      "otherwise": 3554,
      "exist": 3555,
      "extre": 3556,
      "exercise": 3557,
      "foes": 3558,
      "plu": 3559,
      "plung": 3560,
      "pluck": 3561,
      "anyway": 3562,
      "anybody": 3563,
      "ache": 3564,
      "acti": 3565,
      "action": 3566,
      "accent": 3567,
      "accompany": 3568,
      "ruling": 3569,
      "rugged": 3570,
      "ruler": 3571,
      "angrily": 3572,
      "somewhere": 3573,
      "bye": 3574,
      "conver": 3575,
      "conside": 3576,
      "contro": 3577,
      "convers": 3578,
      "confused": 3579,
      "conquer": 3580,
      "assisted": 3581,
      "report": 3582,
      "replace": 3583,
      "inda": 3584,
      "indul": 3585,
      "indign": 3586,
      "affair": 3587,
      "whose": 3588,
      "lower": 3589,
      "girlish": 3590,
      "anting": 3591,
      "THQU": 3592,
      "taking": 3593,
      "hollow": 3594,
      "greatest": 3595,
      "dism": 3596,
      "distin": 3597,
      "disappear": 3598,
      "display": 3599,
      "disagree": 3600,
      "eping": 3601,
      "spy": 3602,
      "ineer": 3603,
      "turnip": 3604,
      "forest": 3605,
      "forehead": 3606,
      "bath": 3607,
      "progre": 3608,
      "proje": 3609,
      "protru": 3610,
      "proposed": 3611,
      "throw": 3612,
      "throne": 3613,
      "thrown": 3614,
      "Were": 3615,
      "clatter": 3616,
      "glance": 3617,
      "glaring": 3618,
      "woke": 3619,
      "comed": 3620,
      "common": 3621,
      "composed": 3622,
      "Head": 3623,
      "worth": 3624,
      "worst": 3625,
      "afternoon": 3626,
      "prefer": 3627,
      "friendly": 3628,
      "perfu": 3629,
      "performed": 3630,
      "performan": 3631,
      "lighter": 3632,
      "lighting": 3633,
      "lightly": 3634,
      "reading": 3635,
      "readily": 3636,
      "reaching": 3637,
      "surely": 3638,
      "eyed": 3639,
      "plead": 3640,
      "Nobody": 3641,
      "tyard": 3642,
      "tink": 3643,
      "throughout": 3644,
      "smashed": 3645,
      "bodily": 3646,
      "cting": 3647,
      "calling": 3648,
      "growl": 3649,
      "blade": 3650,
      "ornam": 3651,
      "rightful": 3652,
      "branch": 3653,
      "briskly": 3654,
      "Inside": 3655,
      "Instead": 3656,
      "Indeed": 3657,
      "Instantly": 3658,
      "letters": 3659,
      "achfully": 3660,
      "chest": 3661,
      "cheered": 3662,
      "fired": 3663,
      "flop": 3664,
      "careless": 3665,
      "merrily": 3666,
      "rise": 3667,
      "risen": 3668,
      "broke": 3669,
      "bearing": 3670,
      "mountains": 3671,
      "beauties": 3672,
      "handker": 3673,
      "ult": 3674,
      "sawdust": 3675,
      "pleasure": 3676,
      "everyone": 3677,
      "everybody": 3678,
      "tells": 3679,
      "teller": 3680,
      "awed": 3681,
      "aware": 3682,
      "joyou": 3683,
      "track": 3684,
      "watcher": 3685,
      "landscape": 3686,
      "store": 3687,
      "pretti": 3688,
      "clover": 3689,
      "closed": 3690,
      "ively": 3691,
      "pulling": 3692,
      "uglier": 3693,
      "ensions": 3694,
      "actually": 3695,
      "cracked": 3696,
      "farm": 3697,
      "yelled": 3698,
      "enquire": 3699,
      "stems": 3700,
      "bowl": 3701,
      "courtyard": 3702,
      "cats": 3703,
      "catching": 3704,
      "offer": 3705,
      "lovelie": 3706,
      "plains": 3707,
      "fluff": 3708,
      "miss": 3709,
      "mistake": 3710,
      "missing": 3711,
      "missed": 3712,
      "mistaken": 3713,
      "misfortune": 3714,
      "skip": 3715,
      "shows": 3716,
      "berries": 3717,
      "finding": 3718,
      "passengers": 3719,
      "standard": 3720,
      "doorways": 3721,
      "continue": 3722,
      "breaths": 3723,
      "mighty": 3724,
      "tains": 3725,
      "tainly": 3726,
      "vegetables": 3727,
      "says": 3728,
      "deser": 3729,
      "deserted": 3730,
      "desired": 3731,
      "despond": 3732,
      "fallen": 3733,
      "hesitation": 3734,
      "toned": 3735,
      "decor": 3736,
      "possession": 3737,
      "jewel": 3738,
      "minded": 3739,
      "signs": 3740,
      "seats": 3741,
      "cracks": 3742,
      "crackers": 3743,
      "crowded": 3744,
      "sided": 3745,
      "sident": 3746,
      "truly": 3747,
      "races": 3748,
      "United": 3749,
      "damp": 3750,
      "finely": 3751,
      "hardest": 3752,
      "partic": 3753,
      "shape": 3754,
      "shake": 3755,
      "split": 3756,
      "splinters": 3757,
      "sixty": 3758,
      "leads": 3759,
      "stubborn": 3760,
      "biting": 3761,
      "halls": 3762,
      "homelike": 3763,
      "appears": 3764,
      "wronged": 3765,
      "wrongly": 3766,
      "bony": 3767,
      "cuts": 3768,
      "sounded": 3769,
      "thorny": 3770,
      "welcomed": 3771,
      "babies": 3772,
      "huddled": 3773,
      "jumping": 3774,
      "scales": 3775,
      "scaley": 3776,
      "sleepy": 3777,
      "leaving": 3778,
      "suggestion": 3779,
      "feeling": 3780,
      "Afterward": 3781,
      "ETTES": 3782,
      "WITH": 3783,
      "cord": 3784,
      "coronet": 3785,
      "corresp": 3786,
      "curled": 3787,
      "curved": 3788,
      "flag": 3789,
      "flags": 3790,
      "marched": 3791,
      "occurs": 3792,
      "powder": 3793,
      "promise": 3794,
      "spoken": 3795,
      "troubled": 3796,
      "window": 3797,
      "ondents": 3798,
      "ungainly": 3799,
      "examining": 3800,
      "folk": 3801,
      "apartment": 3802,
      "decidedly": 3803,
      "OUN": 3804,
      "OUS": 3805,
      "OUGH": 3806,
      "frown": 3807,
      "flying": 3808,
      "mouths": 3809,
      "prime": 3810,
      "wander": 3811,
      "walls": 3812,
      "heartily": 3813,
      "ticing": 3814,
      "rubbing": 3815,
      "stronger": 3816,
      "curios": 3817,
      "ITED": 3818,
      "crust": 3819,
      "crowned": 3820,
      "drop": 3821,
      "dropped": 3822,
      "drooping": 3823,
      "drive": 3824,
      "driving": 3825,
      "faith": 3826,
      "fault": 3827,
      "gazed": 3828,
      "loudly": 3829,
      "ucky": 3830,
      "value": 3831,
      "reassured": 3832,
      "engaged": 3833,
      "engineer": 3834,
      "doesn": 3835,
      "pointing": 3836,
      "surprising": 3837,
      "pleasantly": 3838,
      "splendidly": 3839,
      "Colle": 3840,
      "RAMID": 3841,
      "faced": 3842,
      "faction": 3843,
      "factory": 3844,
      "menager": 3845,
      "swim": 3846,
      "injure": 3847,
      "instantly": 3848,
      "strike": 3849,
      "stripes": 3850,
      "nestled": 3851,
      "groups": 3852,
      "fearfully": 3853,
      "Sometimes": 3854,
      "doubtless": 3855,
      "ENDS": 3856,
      "MAGIC": 3857,
      "Quick": 3858,
      "brook": 3859,
      "dimly": 3860,
      "evident": 3861,
      "passes": 3862,
      "purred": 3863,
      "pursu": 3864,
      "purring": 3865,
      "tremble": 3866,
      "trembling": 3867,
      "tumbling": 3868,
      "wearily": 3869,
      "dozens": 3870,
      "except": 3871,
      "joyfully": 3872,
      "fairyland": 3873,
      "Didn": 3874,
      "brave": 3875,
      "daintily": 3876,
      "finished": 3877,
      "hoped": 3878,
      "haste": 3879,
      "preparations": 3880,
      "swing": 3881,
      "saddle": 3882,
      "yawned": 3883,
      "respectable": 3884,
      "ascensions": 3885,
      "neighb": 3886,
      "colle": 3887,
      "colors": 3888,
      "domain": 3889,
      "polished": 3890,
      "properly": 3891,
      "fields": 3892,
      "jointed": 3893,
      "carrying": 3894,
      "BELT": 3895,
      "President": 3896,
      "REUN": 3897,
      "dignified": 3898,
      "gasped": 3899,
      "groan": 3900,
      "slept": 3901,
      "tub": 3902,
      "invited": 3903,
      "inviting": 3904,
      "attracted": 3905,
      "attracti": 3906,
      "archway": 3907,
      "nodded": 3908,
      "suspense": 3909,
      "busy": 3910,
      "excuse": 3911,
      "surrounded": 3912,
      "surrounding": 3913,
      "surroundings": 3914,
      "travels": 3915,
      "fluttered": 3916,
      "descended": 3917,
      "describe": 3918,
      "waiting": 3919,
      "squealing": 3920,
      "accidents": 3921,
      "considerable": 3922,
      "PROVE": 3923,
      "Such": 3924,
      "emerged": 3925,
      "number": 3926,
      "numbers": 3927,
      "paws": 3928,
      "vicious": 3929,
      "viciously": 3930,
      "winner": 3931,
      "responded": 3932,
      "incline": 3933,
      "inclined": 3934,
      "secure": 3935,
      "securely": 3936,
      "shouted": 3937,
      "grandfather": 3938,
      "grunting": 3939,
      "sparkled": 3940,
      "screamed": 3941,
      "satisfied": 3942,
      "satisfaction": 3943,
      "diamond": 3944,
      "humans": 3945,
      "leathern": 3946,
      "companion": 3947,
      "companions": 3948,
      "occupy": 3949,
      "occupied": 3950,
      "importance": 3951,
      "difficulty": 3952,
      "difficulties": 3953,
      "acknowledge": 3954,
      "brilliantly": 3955,
      "VEGET": 3956,
      "flies": 3957,
      "freely": 3958,
      "lucky": 3959,
      "sister": 3960,
      "smell": 3961,
      "enclosure": 3962,
      "enclosed": 3963,
      "charming": 3964,
      "grasping": 3965,
      "grateful": 3966,
      "gratefully": 3967,
      "lovingly": 3968,
      "accep": 3969,
      "accept": 3970,
      "products": 3971,
      "perfectly": 3972,
      "greeted": 3973,
      "quietly": 3974,
      "intrude": 3975,
      "gracefully": 3976,
      "skinny": 3977,
      "snarled": 3978,
      "private": 3979,
      "privates": 3980,
      "politely": 3981,
      "costumes": 3982,
      "potatoes": 3983,
      "1908": 3984,
      "AGAIN": 3985,
      "AIR": 3986,
      "ASS": 3987,
      "Chief": 3988,
      "OLD": 3989,
      "PYRAMID": 3990,
      "Probably": 3991,
      "States": 3992,
      "USES": 3993,
      "books": 3994,
      "citizens": 3995,
      "dazed": 3996,
      "equal": 3997,
      "fragr": 3998,
      "frisking": 3999,
      "gorgeous": 4000,
      "glittered": 4001,
      "jailor": 4002,
      "kiss": 4003,
      "knots": 4004,
      "nibble": 4005,
      "obeyed": 4006,
      "pounded": 4007,
      "sizes": 4008,
      "smoke": 4009,
      "trans": 4010,
      "resented": 4011,
      "recently": 4012,
      "requested": 4013,
      "innocent": 4014,
      "thoroughly": 4015,
      "enjoyed": 4016,
      "stupid": 4017,
      "stances": 4018,
      "melons": 4019,
      "weapon": 4020,
      "shudder": 4021,
      "quarters": 4022,
      "explore": 4023,
      "extraordinary": 4024,
      "acquainted": 4025,
      "reproachfully": 4026,
      "THROUGH": 4027,
      "protect": 4028,
      "protested": 4029,
      "completed": 4030,
      "greedily": 4031,
      "scrape": 4032,
      "visitors": 4033,
      "browsing": 4034,
      "divided": 4035,
      "ARRIVAL": 4036,
      "flooded": 4037,
      "skillful": 4038,
      "settled": 4039,
      "ESCAPE": 4040,
      "strawberries": 4041,
      "distress": 4042,
      "stuffed": 4043,
      "astonishment": 4044,
      "injury": 4045,
      "gloomily": 4046,
      "Following": 4047,
      "elephant": 4048,
      "cautioned": 4049,
      "manufacture": 4050,
      "DANGEROUS": 4051,
      "DRAGONETTES": 4052,
      "PIGLETS": 4053,
      "WONDERFU": 4054,
      "magnificent": 4055,
      "parent": 4056,
      "intelligent": 4057,
      "distinguished": 4058,
      "Athletic": 4059,
      "Certainly": 4060,
      "CITY": 4061,
      "Chopper": 4062,
      "California": 4063,
      "Diggs": 4064,
      "EARTHQU": 4065,
      "Fairies": 4066,
      "FRIENDS": 4067,
      "GLASS": 4068,
      "Glinda": 4069,
      "Ianu": 4070,
      "Kentucky": 4071,
      "KINGDOM": 4072,
      "Looking": 4073,
      "NINE": 4074,
      "Please": 4075,
      "PICKS": 4076,
      "See": 4077,
      "Siding": 4078,
      "Taken": 4079,
      "TINY": 4080,
      "VALLEY": 4081,
      "VOICES": 4082,
      "WOODEN": 4083,
      "Wonderful": 4084,
      "_is_": 4085,
      "_one_": 4086,
      "axe": 4087,
      "benches": 4088,
      "blame": 4089,
      "barrier": 4090,
      "crouched": 4091,
      "dirty": 4092,
      "duty": 4093,
      "games": 4094,
      "honor": 4095,
      "honest": 4096,
      "jungle": 4097,
      "jiffy": 4098,
      "mama": 4099,
      "pardon": 4100,
      "pavement": 4101,
      "source": 4102,
      "slanted": 4103,
      "simply": 4104,
      "twenty": 4105,
      "twelve": 4106,
      "warning": 4107,
      "witch": 4108,
      "wrestle": 4109,
      "regretful": 4110,
      "influ": 4111,
      "articles": 4112,
      "ashamed": 4113,
      "encountered": 4114,
      "seldom": 4115,
      "stammered": 4116,
      "meekly": 4117,
      "ceremon": 4118,
      "alighted": 4119,
      "chopped": 4120,
      "soldier": 4121,
      "abruptly": 4122,
      "suffer": 4123,
      "laughter": 4124,
      "defeated": 4125,
      "grumbled": 4126,
      "quantity": 4127,
      "plunging": 4128,
      "considered": 4129,
      "conversation": 4130,
      "indulged": 4131,
      "distinct": 4132,
      "disagreeable": 4133,
      "progress": 4134,
      "projected": 4135,
      "protruding": 4136,
      "performance": 4137,
      "handkerchief": 4138,
      "watchers": 4139,
      "loveliest": 4140,
      "fluffy": 4141,
      "particular": 4142,
      "correspondents": 4143,
      "curiosity": 4144,
      "faithful": 4145,
      "College": 4146,
      "menagerie": 4147,
      "REUNITED": 4148,
      "VEGETABLE": 4149,
      "WONDERFUL": 4150,
      "EARTHQUAKE": 4151,
      "!'": 4152,
      "\"'": 4153,
      "\"?": 4154,
      "',": 4155,
      "';": 4156,
      ",--": 4157,
      ".,\"": 4158,
      "24": 4159,
      "25": 4160,
      "217": 4161,
      "41": 4162,
      "55": 4163,
      "64": 4164,
      "77": 4165,
      "88": 4166,
      "95": 4167,
      "AD": 4168,
      "AM": 4169,
      "Ad": 4170,
      "Ahe": 4171,
      "Ano": 4172,
      "Ara": 4173,
      "Ass": 4174,
      "Away": 4175,
      "AIM": 4176,
      "Awful": 4177,
      "BU": 4178,
      "Ban": 4179,
      "Bar": 4180,
      "Bes": 4181,
      "Bears": 4182,
      "Beas": 4183,
      "Book": 4184,
      "BOO": 4185,
      "Bail": 4186,
      "Break": 4187,
      "BOY": 4188,
      "Ca": 4189,
      "Cr": 4190,
      "Con": 4191,
      "Cor": 4192,
      "Call": 4193,
      "Cra": 4194,
      "Cour": 4195,
      "Chap": 4196,
      "CER": 4197,
      "COR": 4198,
      "Cats": 4199,
      "COM": 4200,
      "CUT": 4201,
      "DE": 4202,
      "DN": 4203,
      "De": 4204,
      "Di": 4205,
      "Dra": 4206,
      "Dread": 4207,
      "DED": 4208,
      "Dest": 4209,
      "During": 4210,
      "EB": 4211,
      "EO": 4212,
      "EP": 4213,
      "EU": 4214,
      "Eh": 4215,
      "Em": 4216,
      "Eu": 4217,
      "Ev": 4218,
      "Ex": 4219,
      "Eat": 4220,
      "Ear": 4221,
      "Edu": 4222,
      "ELL": 4223,
      "FI": 4224,
      "Fl": 4225,
      "Fin": 4226,
      "Fly": 4227,
      "Flo": 4228,
      "Fet": 4229,
      "Fru": 4230,
      "Fris": 4231,
      "Fran": 4232,
      "Fishes": 4233,
      "Flying": 4234,
      "FAI": 4235,
      "FELL": 4236,
      "GG": 4237,
      "GR": 4238,
      "Ga": 4239,
      "Gu": 4240,
      "Gre": 4241,
      "Gab": 4242,
      "Get": 4243,
      "GOO": 4244,
      "GARD": 4245,
      "Grad": 4246,
      "HN": 4247,
      "Ho": 4248,
      "Her": 4249,
      "Had": 4250,
      "HER": 4251,
      "HUN": 4252,
      "HARRI": 4253,
      "HAIR": 4254,
      "I_": 4255,
      "Isa": 4256,
      "Its": 4257,
      "Imp": 4258,
      "IKE": 4259,
      "IAM": 4260,
      "JO": 4261,
      "Jum": 4262,
      "Jump": 4263,
      "Jinjur": 4264,
      "KA": 4265,
      "Kitten": 4266,
      "KED": 4267,
      "KIT": 4268,
      "LE": 4269,
      "Li": 4270,
      "Lor": 4271,
      "Lad": 4272,
      "LAND": 4273,
      "Los": 4274,
      "LIS": 4275,
      "LESS": 4276,
      "LOW": 4277,
      "LEA": 4278,
      "LIKE": 4279,
      "MS": 4280,
      "MT": 4281,
      "Mach": 4282,
      "Mort": 4283,
      "MOR": 4284,
      "MBL": 4285,
      "Magn": 4286,
      "MOUN": 4287,
      "NS": 4288,
      "Night": 4289,
      "Nine": 4290,
      "Nation": 4291,
      "NAL": 4292,
      "NING": 4293,
      "NOW": 4294,
      "Naught": 4295,
      "Op": 4296,
      "OTHE": 4297,
      "Oats": 4298,
      "Oscar": 4299,
      "Oatmeal": 4300,
      "OKED": 4301,
      "Pa": 4302,
      "Po": 4303,
      "Pow": 4304,
      "Phad": 4305,
      "Pig": 4306,
      "PER": 4307,
      "PAR": 4308,
      "Pull": 4309,
      "PAG": 4310,
      "Phoo": 4311,
      "Prick": 4312,
      "PEO": 4313,
      "PLE": 4314,
      "POKED": 4315,
      "Run": 4316,
      "Rust": 4317,
      "RAN": 4318,
      "RES": 4319,
      "RED": 4320,
      "RET": 4321,
      "ROO": 4322,
      "RIC": 4323,
      "ROW": 4324,
      "RNS": 4325,
      "Sc": 4326,
      "Sp": 4327,
      "Sw": 4328,
      "San": 4329,
      "Sor": 4330,
      "Swi": 4331,
      "Sti": 4332,
      "Sil": 4333,
      "Sho": 4334,
      "Show": 4335,
      "South": 4336,
      "SIG": 4337,
      "Sci": 4338,
      "SAKE": 4339,
      "STOO": 4340,
      "SLOW": 4341,
      "TW": 4342,
      "Te": 4343,
      "Ter": 4344,
      "Tal": 4345,
      "Tut": 4346,
      "Tru": 4347,
      "Tast": 4348,
      "Two": 4349,
      "TED": 4350,
      "TIG": 4351,
      "TRA": 4352,
      "TEN": 4353,
      "Tip": 4354,
      "TRI": 4355,
      "Train": 4356,
      "TRE": 4357,
      "Twin": 4358,
      "TAIN": 4359,
      "TEA": 4360,
      "TLY": 4361,
      "TRIC": 4362,
      "URNS": 4363,
      "Ve": 4364,
      "VED": 4365,
      "Wa": 4366,
      "Whe": 4367,
      "Was": 4368,
      "Wor": 4369,
      "Woo": 4370,
      "Would": 4371,
      "Wish": 4372,
      "WAR": 4373,
      "Youn": 4374,
      "YOR": 4375,
      "YOU": 4376,
      "Zor": 4377,
      "ZEB": 4378,
      "_me": 4379,
      "_we": 4380,
      "_you": 4381,
      "_im": 4382,
      "_can": 4383,
      "_go": 4384,
      "_any": 4385,
      "_down": 4386,
      "_We": 4387,
      "_know": 4388,
      "_bea": 4389,
      "_went": 4390,
      "_real": 4391,
      "_almost": 4392,
      "_climb": 4393,
      "_I_": 4394,
      "athe": 4395,
      "aver": 4396,
      "aun": 4397,
      "ather": 4398,
      "acan": 4399,
      "apo": 4400,
      "aking": 4401,
      "avo": 4402,
      "awhile": 4403,
      "ators": 4404,
      "aired": 4405,
      "ajar": 4406,
      "awoke": 4407,
      "bb": 4408,
      "bre": 4409,
      "bar": 4410,
      "bun": 4411,
      "bitt": 4412,
      "bag": 4413,
      "bound": 4414,
      "bru": 4415,
      "bby": 4416,
      "bloo": 4417,
      "bill": 4418,
      "bread": 4419,
      "bits": 4420,
      "bish": 4421,
      "bons": 4422,
      "breed": 4423,
      "bash": 4424,
      "bunch": 4425,
      "bages": 4426,
      "bbling": 4427,
      "bian": 4428,
      "borrow": 4429,
      "cs": 4430,
      "cre": 4431,
      "cis": 4432,
      "cro": 4433,
      "card": 4434,
      "cun": 4435,
      "cred": 4436,
      "cone": 4437,
      "cous": 4438,
      "cta": 4439,
      "crea": 4440,
      "croo": 4441,
      "cris": 4442,
      "crest": 4443,
      "cated": 4444,
      "cence": 4445,
      "crun": 4446,
      "cades": 4447,
      "coward": 4448,
      "cool": 4449,
      "dr": 4450,
      "dy": 4451,
      "dor": 4452,
      "dare": 4453,
      "dig": 4454,
      "dough": 4455,
      "dang": 4456,
      "dine": 4457,
      "dum": 4458,
      "dance": 4459,
      "dened": 4460,
      "daw": 4461,
      "dint": 4462,
      "dwind": 4463,
      "doom": 4464,
      "daring": 4465,
      "dashed": 4466,
      "dents": 4467,
      "daun": 4468,
      "ese": 4469,
      "east": 4470,
      "efully": 4471,
      "eves": 4472,
      "erest": 4473,
      "emb": 4474,
      "ecy": 4475,
      "fan": 4476,
      "fow": 4477,
      "fro": 4478,
      "fut": 4479,
      "fun": 4480,
      "fare": 4481,
      "fts": 4482,
      "fant": 4483,
      "fles": 4484,
      "fought": 4485,
      "fountain": 4486,
      "fraid": 4487,
      "fame": 4488,
      "freed": 4489,
      "fasc": 4490,
      "freak": 4491,
      "fasted": 4492,
      "faint": 4493,
      "gn": 4494,
      "ghe": 4495,
      "gon": 4496,
      "ging": 4497,
      "gam": 4498,
      "gers": 4499,
      "gant": 4500,
      "gation": 4501,
      "gment": 4502,
      "gated": 4503,
      "gage": 4504,
      "gener": 4505,
      "gives": 4506,
      "gments": 4507,
      "hi": 4508,
      "hin": 4509,
      "hig": 4510,
      "hic": 4511,
      "ire": 4512,
      "ich": 4513,
      "ivo": 4514,
      "iance": 4515,
      "ienced": 4516,
      "ju": 4517,
      "jit": 4518,
      "jag": 4519,
      "jam": 4520,
      "jaw": 4521,
      "jud": 4522,
      "ky": 4523,
      "kle": 4524,
      "kward": 4525,
      "lf": 4526,
      "lof": 4527,
      "lust": 4528,
      "lts": 4529,
      "lus": 4530,
      "lers": 4531,
      "lant": 4532,
      "lks": 4533,
      "lting": 4534,
      "lently": 4535,
      "lash": 4536,
      "leng": 4537,
      "lately": 4538,
      "liness": 4539,
      "mn": 4540,
      "moo": 4541,
      "morse": 4542,
      "mood": 4543,
      "mend": 4544,
      "mass": 4545,
      "mild": 4546,
      "mouse": 4547,
      "mbled": 4548,
      "mark": 4549,
      "mix": 4550,
      "mended": 4551,
      "munch": 4552,
      "mashed": 4553,
      "morrow": 4554,
      "masters": 4555,
      "non": 4556,
      "nut": 4557,
      "nast": 4558,
      "nap": 4559,
      "nick": 4560,
      "natur": 4561,
      "nations": 4562,
      "naught": 4563,
      "oh": 4564,
      "oed": 4565,
      "oes": 4566,
      "oven": 4567,
      "ocer": 4568,
      "oaster": 4569,
      "odor": 4570,
      "pan": 4571,
      "pit": 4572,
      "ply": 4573,
      "pun": 4574,
      "pain": 4575,
      "pure": 4576,
      "pop": 4577,
      "pion": 4578,
      "ppl": 4579,
      "pair": 4580,
      "plied": 4581,
      "pity": 4582,
      "port": 4583,
      "ppers": 4584,
      "padded": 4585,
      "piled": 4586,
      "porch": 4587,
      "pages": 4588,
      "pyramid": 4589,
      "pier": 4590,
      "pph": 4591,
      "plying": 4592,
      "pool": 4593,
      "panting": 4594,
      "pivo": 4595,
      "rand": 4596,
      "ras": 4597,
      "rim": 4598,
      "rang": 4599,
      "rings": 4600,
      "rate": 4601,
      "rink": 4602,
      "rouse": 4603,
      "ratt": 4604,
      "rasc": 4605,
      "rades": 4606,
      "roughly": 4607,
      "rnished": 4608,
      "rhin": 4609,
      "sand": 4610,
      "son": 4611,
      "sof": 4612,
      "sch": 4613,
      "sim": 4614,
      "sco": 4615,
      "song": 4616,
      "send": 4617,
      "swo": 4618,
      "slight": 4619,
      "sits": 4620,
      "ssure": 4621,
      "shap": 4622,
      "sink": 4623,
      "sland": 4624,
      "sinking": 4625,
      "sank": 4626,
      "sending": 4627,
      "sively": 4628,
      "tit": 4629,
      "tut": 4630,
      "tim": 4631,
      "tear": 4632,
      "tap": 4633,
      "tous": 4634,
      "tles": 4635,
      "tings": 4636,
      "tty": 4637,
      "tting": 4638,
      "tug": 4639,
      "tran": 4640,
      "trun": 4641,
      "tense": 4642,
      "tray": 4643,
      "tugs": 4644,
      "trust": 4645,
      "tables": 4646,
      "tearing": 4647,
      "tasted": 4648,
      "treading": 4649,
      "ual": 4650,
      "ues": 4651,
      "ude": 4652,
      "ushe": 4653,
      "uous": 4654,
      "uable": 4655,
      "uel": 4656,
      "uced": 4657,
      "uries": 4658,
      "uously": 4659,
      "ucy": 4660,
      "ulace": 4661,
      "vor": 4662,
      "vir": 4663,
      "vain": 4664,
      "vass": 4665,
      "vill": 4666,
      "vings": 4667,
      "vity": 4668,
      "vated": 4669,
      "vie": 4670,
      "vitation": 4671,
      "vender": 4672,
      "vacan": 4673,
      "wed": 4674,
      "wing": 4675,
      "wid": 4676,
      "wri": 4677,
      "wain": 4678,
      "wers": 4679,
      "waf": 4680,
      "wate": 4681,
      "wris": 4682,
      "wling": 4683,
      "wist": 4684,
      "warri": 4685,
      "wney": 4686,
      "ys": 4687,
      "yes": 4688,
      "year": 4689,
      "yards": 4690,
      "zy": 4691,
      "zes": 4692,
      "zig": 4693,
      "zag": 4694,
      "zeb": 4695,
      "zled": 4696,
      "zactly": 4697,
      "heed": 4698,
      "heat": 4699,
      "hero": 4700,
      "thes": 4701,
      "thest": 4702,
      "theless": 4703,
      "anti": 4704,
      "anite": 4705,
      "anches": 4706,
      "antic": 4707,
      "ret": 4708,
      "rew": 4709,
      "rell": 4710,
      "rene": 4711,
      "reco": 4712,
      "resu": 4713,
      "refu": 4714,
      "rebu": 4715,
      "reac": 4716,
      "recl": 4717,
      "reward": 4718,
      "retain": 4719,
      "relling": 4720,
      "returning": 4721,
      "rejoined": 4722,
      "retreat": 4723,
      "resign": 4724,
      "retired": 4725,
      "relish": 4726,
      "refre": 4727,
      "rels": 4728,
      "refused": 4729,
      "reference": 4730,
      "resounded": 4731,
      "record": 4732,
      "iny": 4733,
      "inse": 4734,
      "insu": 4735,
      "inked": 4736,
      "inion": 4737,
      "inven": 4738,
      "inner": 4739,
      "informed": 4740,
      "inery": 4741,
      "inval": 4742,
      "inspect": 4743,
      "ths": 4744,
      "thro": 4745,
      "thunder": 4746,
      "threw": 4747,
      "eds": 4748,
      "edia": 4749,
      "educ": 4750,
      "andon": 4751,
      "ander": 4752,
      "toy": 4753,
      "tore": 4754,
      "toast": 4755,
      "total": 4756,
      "tocr": 4757,
      "town": 4758,
      "towns": 4759,
      "towers": 4760,
      "atmo": 4761,
      "ature": 4762,
      "atted": 4763,
      "aters": 4764,
      "atic": 4765,
      "atage": 4766,
      "onto": 4767,
      "erly": 4768,
      "erous": 4769,
      "errand": 4770,
      "aris": 4771,
      "arro": 4772,
      "arti": 4773,
      "arous": 4774,
      "arily": 4775,
      "arose": 4776,
      "arls": 4777,
      "arian": 4778,
      "asm": 4779,
      "asse": 4780,
      "asso": 4781,
      "asure": 4782,
      "asel": 4783,
      "assur": 4784,
      "ashes": 4785,
      "astic": 4786,
      "assem": 4787,
      "assured": 4788,
      "asively": 4789,
      "ory": 4790,
      "oring": 4791,
      "orable": 4792,
      "orate": 4793,
      "orched": 4794,
      "orously": 4795,
      "oroughly": 4796,
      "orial": 4797,
      "enes": 4798,
      "enge": 4799,
      "enra": 4800,
      "enable": 4801,
      "entom": 4802,
      "enables": 4803,
      "envy": 4804,
      "encoun": 4805,
      "enabled": 4806,
      "enticing": 4807,
      "encrust": 4808,
      "leg": 4809,
      "lean": 4810,
      "lered": 4811,
      "leag": 4812,
      "lemn": 4813,
      "iss": 4814,
      "ison": 4815,
      "ises": 4816,
      "island": 4817,
      "llo": 4818,
      "llen": 4819,
      "llified": 4820,
      "ofes": 4821,
      "offered": 4822,
      "ites": 4823,
      "ities": 4824,
      "itive": 4825,
      "itude": 4826,
      "sees": 4827,
      "seven": 4828,
      "seize": 4829,
      "sewn": 4830,
      "seclu": 4831,
      "severe": 4832,
      "seized": 4833,
      "serene": 4834,
      "sts": 4835,
      "stro": 4836,
      "stir": 4837,
      "stun": 4838,
      "stare": 4839,
      "stic": 4840,
      "stiff": 4841,
      "states": 4842,
      "stables": 4843,
      "stanti": 4844,
      "stature": 4845,
      "beat": 4846,
      "bell": 4847,
      "bees": 4848,
      "beha": 4849,
      "beam": 4850,
      "behave": 4851,
      "becoming": 4852,
      "beats": 4853,
      "bewild": 4854,
      "mess": 4855,
      "meated": 4856,
      "meals": 4857,
      "mejit": 4858,
      "add": 4859,
      "adop": 4860,
      "aders": 4861,
      "addressed": 4862,
      "adorable": 4863,
      "owe": 4864,
      "owy": 4865,
      "owed": 4866,
      "owing": 4867,
      "cel": 4868,
      "ceal": 4869,
      "cease": 4870,
      "cellar": 4871,
      "ids": 4872,
      "idance": 4873,
      "idently": 4874,
      "idual": 4875,
      "wet": 4876,
      "weal": 4877,
      "wees": 4878,
      "weeping": 4879,
      "weather": 4880,
      "weeds": 4881,
      "weasel": 4882,
      "ly_": 4883,
      "aling": 4884,
      "alted": 4885,
      "alous": 4886,
      "allest": 4887,
      "aloes": 4888,
      "alities": 4889,
      "vey": 4890,
      "vest": 4891,
      "vement": 4892,
      "vehic": 4893,
      "roll": 4894,
      "rope": 4895,
      "rode": 4896,
      "roam": 4897,
      "roared": 4898,
      "rosy": 4899,
      "roasted": 4900,
      "rocs": 4901,
      "irled": 4902,
      "wife": 4903,
      "wiped": 4904,
      "withered": 4905,
      "utted": 4906,
      "utched": 4907,
      "utters": 4908,
      "uttered": 4909,
      "uttles": 4910,
      "wash": 4911,
      "waste": 4912,
      "noble": 4913,
      "noises": 4914,
      "chall": 4915,
      "chink": 4916,
      "chose": 4917,
      "change": 4918,
      "chins": 4919,
      "chip": 4920,
      "changing": 4921,
      "chase": 4922,
      "chatter": 4923,
      "chasm": 4924,
      "allig": 4925,
      "iment": 4926,
      "immem": 4927,
      ".\"]": 4928,
      "sooth": 4929,
      "solar": 4930,
      "soiled": 4931,
      "sorely": 4932,
      "sovere": 4933,
      "solemn": 4934,
      "escor": 4935,
      "lds": 4936,
      "ldy": 4937,
      "ldly": 4938,
      "sake": 4939,
      "saves": 4940,
      "sailed": 4941,
      "safer": 4942,
      "sapph": 4943,
      "saucy": 4944,
      "whist": 4945,
      "whirled": 4946,
      "oos": 4947,
      "rig": 4948,
      "rich": 4949,
      "rilo": 4950,
      "riously": 4951,
      "rivers": 4952,
      "rify": 4953,
      "rifts": 4954,
      "rippl": 4955,
      "ckings": 4956,
      "ckling": 4957,
      "ckets": 4958,
      "force": 4959,
      "lithe": 4960,
      "liar": 4961,
      "lies": 4962,
      "liable": 4963,
      "lift": 4964,
      "liber": 4965,
      "likes": 4966,
      "licking": 4967,
      "unla": 4968,
      "unlike": 4969,
      "unty": 4970,
      "uncle": 4971,
      "unched": 4972,
      "uneven": 4973,
      "uneas": 4974,
      "unreal": 4975,
      "unused": 4976,
      "unreason": 4977,
      "ungracious": 4978,
      "unnecessary": 4979,
      "untruth": 4980,
      "unfasten": 4981,
      "unfortunately": 4982,
      "unprepared": 4983,
      "unhitched": 4984,
      "unhoo": 4985,
      "undecidedly": 4986,
      "uninvited": 4987,
      "unlucky": 4988,
      "undance": 4989,
      "cared": 4990,
      "caves": 4991,
      "cackling": 4992,
      "ays": 4993,
      "tie": 4994,
      "tip": 4995,
      "tires": 4996,
      "tipped": 4997,
      "tipping": 4998,
      "tizing": 4999,
      "tigers": 5000,
      "tickets": 5001,
      "oundered": 5002,
      "hadn": 5003,
      "gets": 5004,
      "geles": 5005,
      "geously": 5006,
      "peal": 5007,
      "peered": 5008,
      "pecu": 5009,
      "pebble": 5010,
      "pebb": 5011,
      "pelting": 5012,
      "pearls": 5013,
      "rare": 5014,
      "rait": 5015,
      "raise": 5016,
      "racing": 5017,
      "rawling": 5018,
      "raiment": 5019,
      "upside": 5020,
      "net": 5021,
      "nered": 5022,
      "neig": 5023,
      "neared": 5024,
      "nection": 5025,
      "haught": 5026,
      "ented": 5027,
      "ental": 5028,
      "note": 5029,
      "noting": 5030,
      "coal": 5031,
      "cope": 5032,
      "codi": 5033,
      "coals": 5034,
      "colt": 5035,
      "collar": 5036,
      "coarse": 5037,
      "abby": 5038,
      "abroad": 5039,
      "abandon": 5040,
      "aborate": 5041,
      "abundance": 5042,
      "suspect": 5043,
      "ittering": 5044,
      "aintest": 5045,
      "key": 5046,
      "keen": 5047,
      "outer": 5048,
      "outward": 5049,
      "outlet": 5050,
      "arer": 5051,
      "buttoned": 5052,
      "moan": 5053,
      "moon": 5054,
      "moted": 5055,
      "moons": 5056,
      "modest": 5057,
      "mollified": 5058,
      "moldy": 5059,
      "fuss": 5060,
      "furiously": 5061,
      "ignor": 5062,
      "lage": 5063,
      "lagg": 5064,
      "lakes": 5065,
      "lamb": 5066,
      "lawn": 5067,
      "lavender": 5068,
      "launched": 5069,
      "decl": 5070,
      "defi": 5071,
      "decent": 5072,
      "detail": 5073,
      "depose": 5074,
      "delay": 5075,
      "deceive": 5076,
      "shy": 5077,
      "shone": 5078,
      "shown": 5079,
      "shines": 5080,
      "shrink": 5081,
      "shiny": 5082,
      "ssive": 5083,
      "shelf": 5084,
      "grind": 5085,
      "granite": 5086,
      "terrified": 5087,
      "terrify": 5088,
      "mystic": 5089,
      "lock": 5090,
      "loss": 5091,
      "logy": 5092,
      "locks": 5093,
      "aging": 5094,
      "aggre": 5095,
      "amid": 5096,
      "amount": 5097,
      "ambit": 5098,
      "amounted": 5099,
      "amply": 5100,
      "amander": 5101,
      "dolls": 5102,
      "dollar": 5103,
      "dotting": 5104,
      "quil": 5105,
      "quail": 5106,
      "quakes": 5107,
      "qualities": 5108,
      "quaintest": 5109,
      "bud": 5110,
      "buy": 5111,
      "bury": 5112,
      "bugs": 5113,
      "buff": 5114,
      "bulle": 5115,
      "bubbling": 5116,
      "burnished": 5117,
      "bored": 5118,
      "bother": 5119,
      "bossed": 5120,
      "bolling": 5121,
      "boats": 5122,
      "bosom": 5123,
      "boldly": 5124,
      "oppose": 5125,
      "opposing": 5126,
      "opinion": 5127,
      "fection": 5128,
      "feats": 5129,
      "fetched": 5130,
      "cannon": 5131,
      "cancel": 5132,
      "goes": 5133,
      "gobbled": 5134,
      "theirs": 5135,
      "Zebedia": 5136,
      "endure": 5137,
      "enders": 5138,
      "enduring": 5139,
      "!\"]": 5140,
      "post": 5141,
      "poked": 5142,
      "poise": 5143,
      "pomp": 5144,
      "pores": 5145,
      "poised": 5146,
      "poison": 5147,
      "ifican": 5148,
      "willing": 5149,
      "exact": 5150,
      "exposed": 5151,
      "excurs": 5152,
      "exhi": 5153,
      "exalted": 5154,
      "foam": 5155,
      "folds": 5156,
      "early": 5157,
      "Ozite": 5158,
      "Ozites": 5159,
      "ggly": 5160,
      "ggled": 5161,
      "gglers": 5162,
      "ilar": 5163,
      "ilous": 5164,
      "ilty": 5165,
      "plan": 5166,
      "plum": 5167,
      "plated": 5168,
      "plaster": 5169,
      "plishes": 5170,
      "plenti": 5171,
      "plasters": 5172,
      "plowed": 5173,
      "mail": 5174,
      "ful_": 5175,
      "fulfill": 5176,
      "acing": 5177,
      "acher": 5178,
      "acted": 5179,
      "accom": 5180,
      "acious": 5181,
      "acqui": 5182,
      "accompan": 5183,
      "ruin": 5184,
      "rush": 5185,
      "rules": 5186,
      "rugs": 5187,
      "ruined": 5188,
      "ruff": 5189,
      "ruden": 5190,
      "rumbled": 5191,
      "therefore": 5192,
      "angled": 5193,
      "angles": 5194,
      "somewhat": 5195,
      "somehow": 5196,
      "hats": 5197,
      "conven": 5198,
      "concer": 5199,
      "constant": 5200,
      "constru": 5201,
      "confin": 5202,
      "consis": 5203,
      "contempt": 5204,
      "conceal": 5205,
      "connection": 5206,
      "assment": 5207,
      "assort": 5208,
      "assorted": 5209,
      "Profes": 5210,
      "apt": 5211,
      "apers": 5212,
      "appro": 5213,
      "appre": 5214,
      "appla": 5215,
      "appoint": 5216,
      "aptly": 5217,
      "apparent": 5218,
      "applying": 5219,
      "Princes": 5220,
      "looks": 5221,
      "repay": 5222,
      "repul": 5223,
      "represented": 5224,
      "repaired": 5225,
      "indic": 5226,
      "indiv": 5227,
      "induced": 5228,
      "tely": 5229,
      "teles": 5230,
      "teach": 5231,
      "teacher": 5232,
      "wholly": 5233,
      "likewise": 5234,
      "getable": 5235,
      "longs": 5236,
      "longed": 5237,
      "antage": 5238,
      "antments": 5239,
      "antlered": 5240,
      "THOR": 5241,
      "THIS": 5242,
      "tools": 5243,
      "tale": 5244,
      "tales": 5245,
      "tamely": 5246,
      "tawney": 5247,
      "illum": 5248,
      "holid": 5249,
      "hoarse": 5250,
      "hosts": 5251,
      "wherein": 5252,
      "wherever": 5253,
      "yourselves": 5254,
      "uses": 5255,
      "useless": 5256,
      "uselessly": 5257,
      "derous": 5258,
      "turing": 5259,
      "turbed": 5260,
      "turbot": 5261,
      "dismay": 5262,
      "disclo": 5263,
      "dishes": 5264,
      "dispose": 5265,
      "disgu": 5266,
      "disdain": 5267,
      "discontented": 5268,
      "displayed": 5269,
      "disliked": 5270,
      "disarranged": 5271,
      "disabled": 5272,
      "dismissed": 5273,
      "disappoint": 5274,
      "disturbed": 5275,
      "overcome": 5276,
      "overhead": 5277,
      "overlook": 5278,
      "overtake": 5279,
      "overtook": 5280,
      "overheard": 5281,
      "overtaken": 5282,
      "overgrown": 5283,
      "boys": 5284,
      "spur": 5285,
      "spend": 5286,
      "sphere": 5287,
      "sport": 5288,
      "spades": 5289,
      "spool": 5290,
      "sprawling": 5291,
      "spacious": 5292,
      "spangles": 5293,
      "spapers": 5294,
      "voked": 5295,
      "bleed": 5296,
      "bait": 5297,
      "bared": 5298,
      "bake": 5299,
      "baked": 5300,
      "bathed": 5301,
      "prob": 5302,
      "proof": 5303,
      "proves": 5304,
      "propose": 5305,
      "promoted": 5306,
      "provoked": 5307,
      "Weent": 5308,
      "THERE": 5309,
      "--\"": 5310,
      "--'": 5311,
      "headlong": 5312,
      "stray": 5313,
      "strides": 5314,
      "stratage": 5315,
      "strutted": 5316,
      "adest": 5317,
      "clay": 5318,
      "cloth": 5319,
      "clone": 5320,
      "clum": 5321,
      "clutched": 5322,
      "glare": 5323,
      "glist": 5324,
      "glistened": 5325,
      "women": 5326,
      "wobbled": 5327,
      "combed": 5328,
      "complex": 5329,
      "combat": 5330,
      "comrades": 5331,
      "Hello": 5332,
      "worked": 5333,
      "worried": 5334,
      "hereafter": 5335,
      "preserved": 5336,
      "pressed": 5337,
      "preserve": 5338,
      "prevent": 5339,
      "pressure": 5340,
      "friendship": 5341,
      "friendliness": 5342,
      "goods": 5343,
      "pert": 5344,
      "perate": 5345,
      "perio": 5346,
      "perial": 5347,
      "perceived": 5348,
      "perceive": 5349,
      "permeated": 5350,
      "perfection": 5351,
      "perilous": 5352,
      "umber": 5353,
      "umstances": 5354,
      "backs": 5355,
      "readiness": 5356,
      "arting": 5357,
      "Soon": 5358,
      "mediately": 5359,
      "earthquakes": 5360,
      "eling": 5361,
      "elids": 5362,
      "elaborate": 5363,
      "eats": 5364,
      "eaten": 5365,
      "plaited": 5366,
      "greys": 5367,
      "muster": 5368,
      "scree": 5369,
      "scured": 5370,
      "scorched": 5371,
      "scenes": 5372,
      "scuttles": 5373,
      "untied": 5374,
      "eyelids": 5375,
      "icers": 5376,
      "tops": 5377,
      "clap": 5378,
      "claw": 5379,
      "Noticing": 5380,
      "justable": 5381,
      "knowing": 5382,
      "tyran": 5383,
      "types": 5384,
      "tints": 5385,
      "tinsel": 5386,
      "tiness": 5387,
      "tintings": 5388,
      "smallest": 5389,
      "smarting": 5390,
      "wondered": 5391,
      "wonders": 5392,
      "bigness": 5393,
      "biggest": 5394,
      "begun": 5395,
      "bodice": 5396,
      "create": 5397,
      "creating": 5398,
      "donkey": 5399,
      "vingly": 5400,
      "roots": 5401,
      "queerest": 5402,
      "Anu": 5403,
      "Animal": 5404,
      "Angeles": 5405,
      "ctantly": 5406,
      "menters": 5407,
      "grows": 5408,
      "growth": 5409,
      "growling": 5410,
      "growls": 5411,
      "nearby": 5412,
      "appealing": 5413,
      "appetizing": 5414,
      "blown": 5415,
      "blance": 5416,
      "blinded": 5417,
      "blues": 5418,
      "blinked": 5419,
      "breaking": 5420,
      "visited": 5421,
      "rightly": 5422,
      "brim": 5423,
      "brown": 5424,
      "branches": 5425,
      "cleaned": 5426,
      "clearer": 5427,
      "walks": 5428,
      "lessons": 5429,
      "sooner": 5430,
      "surly": 5431,
      "letter": 5432,
      "achie": 5433,
      "achute": 5434,
      "chew": 5435,
      "cheers": 5436,
      "cheery": 5437,
      "cheek": 5438,
      "fixt": 5439,
      "fireplace": 5440,
      "float": 5441,
      "flock": 5442,
      "flocked": 5443,
      "flopped": 5444,
      "iousness": 5445,
      "rent": 5446,
      "rending": 5447,
      "carelessly": 5448,
      "dded": 5449,
      "mercy": 5450,
      "starve": 5451,
      "starving": 5452,
      "beaks": 5453,
      "broise": 5454,
      "brocades": 5455,
      "broadest": 5456,
      "daylight": 5457,
      "thoughts": 5458,
      "grounds": 5459,
      "beauty": 5460,
      "ERVED": 5461,
      "handed": 5462,
      "handle": 5463,
      "handling": 5464,
      "ulfed": 5465,
      "ulsively": 5466,
      "pleasing": 5467,
      "pleasures": 5468,
      "everywhere": 5469,
      "rows": 5470,
      "rowing": 5471,
      "series": 5472,
      "serious": 5473,
      "quivered": 5474,
      "selfish": 5475,
      "happens": 5476,
      "died": 5477,
      "dially": 5478,
      "dience": 5479,
      "dreamed": 5480,
      "hasn": 5481,
      "hastily": 5482,
      "resting": 5483,
      "restrain": 5484,
      "stillness": 5485,
      "underground": 5486,
      "undertake": 5487,
      "awfully": 5488,
      "awake": 5489,
      "awak": 5490,
      "awkward": 5491,
      "job": 5492,
      "jolly": 5493,
      "tracer": 5494,
      "waters": 5495,
      "welled": 5496,
      "escaping": 5497,
      "newspapers": 5498,
      "stole": 5499,
      "stomach": 5500,
      "stooped": 5501,
      "stockings": 5502,
      "pretend": 5503,
      "pretended": 5504,
      "prettiness": 5505,
      "agements": 5506,
      "clothed": 5507,
      "clothes": 5508,
      "puff": 5509,
      "pushing": 5510,
      "spear": 5511,
      "spell": 5512,
      "spelled": 5513,
      "specks": 5514,
      "speaking": 5515,
      "specta": 5516,
      "strangest": 5517,
      "Which": 5518,
      "beds": 5519,
      "easie": 5520,
      "easier": 5521,
      "roofs": 5522,
      "cabbages": 5523,
      "wondering": 5524,
      "wonderfully": 5525,
      "However": 5526,
      "crazy": 5527,
      "farther": 5528,
      "fourth": 5529,
      "hunt": 5530,
      "sunlight": 5531,
      "sunset": 5532,
      "sunbeam": 5533,
      "silvery": 5534,
      "yelling": 5535,
      "reality": 5536,
      "realized": 5537,
      "intended": 5538,
      "intends": 5539,
      "steed": 5540,
      "steer": 5541,
      "steaming": 5542,
      "bows": 5543,
      "bowing": 5544,
      "bowspr": 5545,
      "grazed": 5546,
      "grazing": 5547,
      "gravitation": 5548,
      "gravey": 5549,
      "ptuously": 5550,
      "staircase": 5551,
      "advance": 5552,
      "advantage": 5553,
      "flooring": 5554,
      "catsup": 5555,
      "cars": 5556,
      "iegated": 5557,
      "picking": 5558,
      "ranch": 5559,
      "ranks": 5560,
      "attain": 5561,
      "attended": 5562,
      "office": 5563,
      "officers": 5564,
      "needn": 5565,
      "needs": 5566,
      "azoos": 5567,
      "flung": 5568,
      "floundered": 5569,
      "flabby": 5570,
      "fleet": 5571,
      "fleecy": 5572,
      "mistre": 5573,
      "showing": 5574,
      "broader": 5575,
      "broaden": 5576,
      "ANOTHE": 5577,
      "berry": 5578,
      "centuries": 5579,
      "roughe": 5580,
      "runs": 5581,
      "setting": 5582,
      "strewn": 5583,
      "stands": 5584,
      "dearly": 5585,
      "continually": 5586,
      "greenish": 5587,
      "draws": 5588,
      "drawled": 5589,
      "CHES": 5590,
      "Today": 5591,
      "Tomorrow": 5592,
      "harsh": 5593,
      "observe": 5594,
      "obscured": 5595,
      "snort": 5596,
      "snugly": 5597,
      "snakes": 5598,
      "write": 5599,
      "writing": 5600,
      "vegetarian": 5601,
      "TERED": 5602,
      "desires": 5603,
      "desperate": 5604,
      "halted": 5605,
      "insisted": 5606,
      "istless": 5607,
      "decree": 5608,
      "positive": 5609,
      "hurried": 5610,
      "jealous": 5611,
      "jewelled": 5612,
      "mpathe": 5613,
      "persons": 5614,
      "waved": 5615,
      "waves": 5616,
      "waist": 5617,
      "wailed": 5618,
      "onsible": 5619,
      "arrive": 5620,
      "straws": 5621,
      "stranger": 5622,
      "crackle": 5623,
      "CHAPTERS": 5624,
      "Alluring": 5625,
      "crowds": 5626,
      "fairies": 5627,
      "siding": 5628,
      "talons": 5629,
      "sharply": 5630,
      "distant": 5631,
      "Unless": 5632,
      "Unhit": 5633,
      "Unfortunately": 5634,
      "damaging": 5635,
      "flowing": 5636,
      "finest": 5637,
      "hardness": 5638,
      "humbly": 5639,
      "humbugs": 5640,
      "parachute": 5641,
      "partly": 5642,
      "partition": 5643,
      "shaved": 5644,
      "shabby": 5645,
      "shavings": 5646,
      "splinter": 5647,
      "edgewise": 5648,
      "students": 5649,
      "studded": 5650,
      "lively": 5651,
      "lacks": 5652,
      "shoe": 5653,
      "shore": 5654,
      "shots": 5655,
      "shocked": 5656,
      "gladdened": 5657,
      "remains": 5658,
      "queerly": 5659,
      "largest": 5660,
      "Offic": 5661,
      "Wherever": 5662,
      "fighting": 5663,
      "trip": 5664,
      "trips": 5665,
      "starting": 5666,
      "startling": 5667,
      "platter": 5668,
      "platters": 5669,
      "bonfire": 5670,
      "cuff": 5671,
      "cuddled": 5672,
      "cutting": 5673,
      "matted": 5674,
      "matched": 5675,
      "materi": 5676,
      "sincere": 5677,
      "hairs": 5678,
      "shouldn": 5679,
      "sprays": 5680,
      "happenings": 5681,
      "climbing": 5682,
      "Atlant": 5683,
      "birth": 5684,
      "crushed": 5685,
      "hues": 5686,
      "hush": 5687,
      "hugged": 5688,
      "scared": 5689,
      "scaped": 5690,
      "sleeping": 5691,
      "leaved": 5692,
      "compared": 5693,
      "circular": 5694,
      "circumstances": 5695,
      "Royalty": 5696,
      "Being": 5697,
      "Below": 5698,
      "Because": 5699,
      "Behold": 5700,
      "Behind": 5701,
      "ETC": 5702,
      "Thought": 5703,
      "Thoroughly": 5704,
      "Throwing": 5705,
      "WILL": 5706,
      "cork": 5707,
      "cords": 5708,
      "correct": 5709,
      "cornered": 5710,
      "cordially": 5711,
      "curve": 5712,
      "curred": 5713,
      "curving": 5714,
      "curtains": 5715,
      "current": 5716,
      "darker": 5717,
      "darkened": 5718,
      "flaming": 5719,
      "kicks": 5720,
      "married": 5721,
      "maroon": 5722,
      "occurred": 5723,
      "spoil": 5724,
      "sights": 5725,
      "treasure": 5726,
      "winding": 5727,
      "becomes": 5728,
      "members": 5729,
      "safest": 5730,
      "example": 5731,
      "explains": 5732,
      "explaining": 5733,
      "apartments": 5734,
      "breakfasted": 5735,
      "Nevertheless": 5736,
      "OUD": 5737,
      "Rains": 5738,
      "Rulers": 5739,
      "dull": 5740,
      "ducked": 5741,
      "double": 5742,
      "dangerously": 5743,
      "fray": 5744,
      "fool": 5745,
      "guide": 5746,
      "guidance": 5747,
      "guilty": 5748,
      "midnight": 5749,
      "prized": 5750,
      "supposing": 5751,
      "supplied": 5752,
      "squeals": 5753,
      "trooped": 5754,
      "taller": 5755,
      "wandering": 5756,
      "walled": 5757,
      "hearing": 5758,
      "hearted": 5759,
      "beastly": 5760,
      "younger": 5761,
      "succession": 5762,
      "bushy": 5763,
      "rubies": 5764,
      "rubbish": 5765,
      "frighten": 5766,
      "worker": 5767,
      "closets": 5768,
      "splendor": 5769,
      "Canary": 5770,
      "ONG": 5771,
      "ONAD": 5772,
      "crown": 5773,
      "critic": 5774,
      "drops": 5775,
      "dripping": 5776,
      "failed": 5777,
      "favor": 5778,
      "gaze": 5779,
      "swept": 5780,
      "sweaters": 5781,
      "valiant": 5782,
      "resisting": 5783,
      "resistless": 5784,
      "reasons": 5785,
      "tomorrow": 5786,
      "engulfed": 5787,
      "engagements": 5788,
      "wizards": 5789,
      "wizzes": 5790,
      "destined": 5791,
      "deadly": 5792,
      "delightful": 5793,
      "playing": 5794,
      "spectable": 5795,
      "doubts": 5796,
      "remembering": 5797,
      "Island": 5798,
      "Percei": 5799,
      "Permit": 5800,
      "facing": 5801,
      "facts": 5802,
      "facturing": 5803,
      "menacing": 5804,
      "swift": 5805,
      "swifter": 5806,
      "strip": 5807,
      "strict": 5808,
      "struggle": 5809,
      "struggled": 5810,
      "imps": 5811,
      "impulsively": 5812,
      "nestling": 5813,
      "ignty": 5814,
      "amongst": 5815,
      "boxing": 5816,
      "boxes": 5817,
      "fearsome": 5818,
      "expecting": 5819,
      "expectantly": 5820,
      "planting": 5821,
      "hopeful": 5822,
      "womanly": 5823,
      "comforted": 5824,
      "comforting": 5825,
      "comfortable": 5826,
      "scarce": 5827,
      "smoothing": 5828,
      "directions": 5829,
      "revolver": 5830,
      "revolved": 5831,
      "Goodness": 5832,
      "Henkle": 5833,
      "ICAT": 5834,
      "MADE": 5835,
      "Readers": 5836,
      "Tiny": 5837,
      "Wooden": 5838,
      "ciate": 5839,
      "ciating": 5840,
      "evidence": 5841,
      "evasively": 5842,
      "evidently": 5843,
      "purple": 5844,
      "pursuit": 5845,
      "tumble": 5846,
      "torn": 5847,
      "tormenters": 5848,
      "royer": 5849,
      "roads": 5850,
      "noiseless": 5851,
      "noiselessly": 5852,
      "cotton": 5853,
      "substance": 5854,
      "submit": 5855,
      "substanti": 5856,
      "suitably": 5857,
      "furnished": 5858,
      "furthest": 5859,
      "amazing": 5860,
      "doze": 5861,
      "scatter": 5862,
      "scattering": 5863,
      "signal": 5864,
      "signals": 5865,
      "significan": 5866,
      "solidated": 5867,
      "questioned": 5868,
      "sweetly": 5869,
      "sweetest": 5870,
      "journeying": 5871,
      "Almost": 5872,
      "Kingdom": 5873,
      "RIES": 5874,
      "Whoa": 5875,
      "bravery": 5876,
      "echoed": 5877,
      "eagerness": 5878,
      "hoping": 5879,
      "hopped": 5880,
      "hasty": 5881,
      "hasten": 5882,
      "patted": 5883,
      "patting": 5884,
      "patches": 5885,
      "prepare": 5886,
      "preparing": 5887,
      "swam": 5888,
      "swung": 5889,
      "sadly": 5890,
      "squatted": 5891,
      "wisely": 5892,
      "attacked": 5893,
      "ascend": 5894,
      "ascended": 5895,
      "ascending": 5896,
      "ordinarily": 5897,
      "enchantments": 5898,
      "advise": 5899,
      "coldly": 5900,
      "domes": 5901,
      "seeming": 5902,
      "politic": 5903,
      "express": 5904,
      "expressed": 5905,
      "accused": 5906,
      "consciousness": 5907,
      "joints": 5908,
      "steeper": 5909,
      "steeple": 5910,
      "objected": 5911,
      "strapped": 5912,
      "straightway": 5913,
      "wizardries": 5914,
      "BEING": 5915,
      "Blackness": 5916,
      "Highly": 5917,
      "Pretty": 5918,
      "REALL": 5919,
      "REKA": 5920,
      "differ": 5921,
      "gasp": 5922,
      "gashes": 5923,
      "gasps": 5924,
      "groves": 5925,
      "horror": 5926,
      "horrible": 5927,
      "horrified": 5928,
      "knock": 5929,
      "knocking": 5930,
      "latter": 5931,
      "mblage": 5932,
      "proudest": 5933,
      "slim": 5934,
      "slain": 5935,
      "slide": 5936,
      "slanting": 5937,
      "slashes": 5938,
      "slumber": 5939,
      "sleight": 5940,
      "sleek": 5941,
      "sleeve": 5942,
      "sleeves": 5943,
      "tues": 5944,
      "various": 5945,
      "varied": 5946,
      "variegated": 5947,
      "wounds": 5948,
      "invitation": 5949,
      "invented": 5950,
      "attraction": 5951,
      "attracts": 5952,
      "archs": 5953,
      "orchard": 5954,
      "energy": 5955,
      "entire": 5956,
      "entific": 5957,
      "admire": 5958,
      "charge": 5959,
      "charging": 5960,
      "imagined": 5961,
      "petting": 5962,
      "devoured": 5963,
      "business": 5964,
      "excited": 5965,
      "spirit": 5966,
      "spirits": 5967,
      "spreading": 5968,
      "performing": 5969,
      "eyeing": 5970,
      "breathed": 5971,
      "cleverly": 5972,
      "travelers": 5973,
      "graciously": 5974,
      "flutter": 5975,
      "descend": 5976,
      "descending": 5977,
      "nervously": 5978,
      "birdcage": 5979,
      "squealed": 5980,
      "squealer": 5981,
      "successor": 5982,
      "squares": 5983,
      "courage": 5984,
      "courageous": 5985,
      "interested": 5986,
      "interesting": 5987,
      "consideration": 5988,
      "Everybody": 5989,
      "Forest": 5990,
      "Folks": 5991,
      "KEEP": 5992,
      "Step": 5993,
      "blocked": 5994,
      "cyclone": 5995,
      "crystal": 5996,
      "eleven": 5997,
      "elevated": 5998,
      "ladies": 5999,
      "month": 6000,
      "monarchs": 6001,
      "murderous": 6002,
      "numerous": 6003,
      "pinhead": 6004,
      "victory": 6005,
      "violently": 6006,
      "winked": 6007,
      "responsible": 6008,
      "rectly": 6009,
      "included": 6010,
      "secret": 6011,
      "stayed": 6012,
      "stoutly": 6013,
      "stoutest": 6014,
      "ribs": 6015,
      "ribbons": 6016,
      "shutting": 6017,
      "shouts": 6018,
      "shouting": 6019,
      "grunt": 6020,
      "grunts": 6021,
      "grunted": 6022,
      "golden": 6023,
      "proceeded": 6024,
      "proceeding": 6025,
      "thrusts": 6026,
      "screw": 6027,
      "scream": 6028,
      "screws": 6029,
      "scratched": 6030,
      "scratching": 6031,
      "cheerful": 6032,
      "fiercer": 6033,
      "fiercely": 6034,
      "satisfy": 6035,
      "clockwork": 6036,
      "hundreds": 6037,
      "attendant": 6038,
      "velvets": 6039,
      "velvety": 6040,
      "snapping": 6041,
      "hesitating": 6042,
      "crushing": 6043,
      "occupants": 6044,
      "sorceries": 6045,
      "delightedly": 6046,
      "subject": 6047,
      "expressionless": 6048,
      "difficult": 6049,
      "proudly": 6050,
      "admirable": 6051,
      "admiringly": 6052,
      "contentedly": 6053,
      "narrower": 6054,
      "picturesque": 6055,
      "inhabited": 6056,
      "inhabitant": 6057,
      "inhabitants": 6058,
      ",'\"": 6059,
      ".'\"": 6060,
      ".',": 6061,
      "131": 6062,
      "172": 6063,
      "ACTLY": 6064,
      "AUTHOR": 6065,
      "DERED": 6066,
      "FROM": 6067,
      "Generals": 6068,
      "More": 6069,
      "ctively": 6070,
      "ctically": 6071,
      "deny": 6072,
      "dashing": 6073,
      "dashboard": 6074,
      "fingers": 6075,
      "flicked": 6076,
      "flicker": 6077,
      "frank": 6078,
      "frantic": 6079,
      "frankly": 6080,
      "frantically": 6081,
      "gowns": 6082,
      "lungs": 6083,
      "mainly": 6084,
      "maintain": 6085,
      "mounting": 6086,
      "pale": 6087,
      "paid": 6088,
      "pause": 6089,
      "pausing": 6090,
      "sisters": 6091,
      "smelled": 6092,
      "smelling": 6093,
      "sensation": 6094,
      "senses": 6095,
      "regal": 6096,
      "repeating": 6097,
      "arrassment": 6098,
      "select": 6099,
      "weighting": 6100,
      "weighs": 6101,
      "chances": 6102,
      "uniform": 6103,
      "cautiously": 6104,
      "manufacturing": 6105,
      "shifted": 6106,
      "grasped": 6107,
      "grasshop": 6108,
      "mystery": 6109,
      "mysteries": 6110,
      "mysterious": 6111,
      "mysteriously": 6112,
      "quism": 6113,
      "ferent": 6114,
      "extended": 6115,
      "extends": 6116,
      "experienced": 6117,
      "tempting": 6118,
      "produce": 6119,
      "producing": 6120,
      "clusters": 6121,
      "permit": 6122,
      "perplexed": 6123,
      "travelled": 6124,
      "puzzling": 6125,
      "crawled": 6126,
      "intruder": 6127,
      "intruders": 6128,
      "introduce": 6129,
      "graceful": 6130,
      "snarl": 6131,
      "snarling": 6132,
      "marvelously": 6133,
      "occasional": 6134,
      "foolishness": 6135,
      "delicately": 6136,
      "patiently": 6137,
      "absurdly": 6138,
      "106": 6139,
      "120": 6140,
      "142": 6141,
      "160": 6142,
      "ASOL": 6143,
      "Chica": 6144,
      "Haven": 6145,
      "Having": 6146,
      "NEW": 6147,
      "NEAL": 6148,
      "NEILL": 6149,
      "Others": 6150,
      "Otherwise": 6151,
      "PYRIGHT": 6152,
      "Prove": 6153,
      "RIGHTS": 6154,
      "Star": 6155,
      "USTRA": 6156,
      "boost": 6157,
      "cities": 6158,
      "cherries": 6159,
      "dazzled": 6160,
      "equally": 6161,
      "fragments": 6162,
      "frisk": 6163,
      "gait": 6164,
      "gather": 6165,
      "gaily": 6166,
      "gorgeously": 6167,
      "gleamed": 6168,
      "gleaming": 6169,
      "gleefully": 6170,
      "glitter": 6171,
      "hills": 6172,
      "hillside": 6173,
      "jarred": 6174,
      "kissing": 6175,
      "music": 6176,
      "muscle": 6177,
      "nibbled": 6178,
      "odds": 6179,
      "pays": 6180,
      "paying": 6181,
      "rupted": 6182,
      "sympathe": 6183,
      "shade": 6184,
      "shades": 6185,
      "shadowy": 6186,
      "sized": 6187,
      "smoking": 6188,
      "sorcerers": 6189,
      "trimmed": 6190,
      "tenderly": 6191,
      "requests": 6192,
      "innocence": 6193,
      "interference": 6194,
      "interrupted": 6195,
      "thority": 6196,
      "stalk": 6197,
      "stalked": 6198,
      "stupor": 6199,
      "sticks": 6200,
      "sticking": 6201,
      "melon": 6202,
      "weeks": 6203,
      "weapons": 6204,
      "alike": 6205,
      "chamber": 6206,
      "chambers": 6207,
      "champion": 6208,
      "impressed": 6209,
      "impression": 6210,
      "impressive": 6211,
      "soberly": 6212,
      "forbidden": 6213,
      "forbidding": 6214,
      "tiresome": 6215,
      "tireless": 6216,
      "rails": 6217,
      "devoid": 6218,
      "devoted": 6219,
      "devote": 6220,
      "shuddered": 6221,
      "gruffly": 6222,
      "quarrelling": 6223,
      "buckle": 6224,
      "buckled": 6225,
      "buckles": 6226,
      "explored": 6227,
      "extraordinarily": 6228,
      "machine": 6229,
      "machinery": 6230,
      "acquaint": 6231,
      "confined": 6232,
      "confident": 6233,
      "confidence": 6234,
      "contains": 6235,
      "containing": 6236,
      "assistance": 6237,
      "reprovingly": 6238,
      "THRONG": 6239,
      "thankful": 6240,
      "protection": 6241,
      "completely": 6242,
      "complained": 6243,
      "commands": 6244,
      "umbrell": 6245,
      "greedy": 6246,
      "scraggly": 6247,
      "scornful": 6248,
      "scornfully": 6249,
      "Anyone": 6250,
      "Anyhow": 6251,
      "visitor": 6252,
      "brothers": 6253,
      "divide": 6254,
      "skillfully": 6255,
      "settling": 6256,
      "ESCAPING": 6257,
      "distressed": 6258,
      "conditions": 6259,
      "babyish": 6260,
      "astonishing": 6261,
      "squeeze": 6262,
      "squeezed": 6263,
      "squeezing": 6264,
      "temptation": 6265,
      "elephants": 6266,
      "freshly": 6267,
      "manufactured": 6268,
      "experiences": 6269,
      "guests": 6270,
      "limbs": 6271,
      "magnificence": 6272,
      "parents": 6273,
      "intelligence": 6274,
      "thousands": 6275,
      "exquisitely": 6276,
      "distinguish": 6277,
      "187": 6278,
      "203": 6279,
      "231": 6280,
      "Ambroise": 6281,
      "Army": 6282,
      "Armies": 6283,
      "America": 6284,
      "American": 6285,
      "Bah": 6286,
      "Baum": 6287,
      "Bush": 6288,
      "Buggy": 6289,
      "CLAIM": 6290,
      "CLOUD": 6291,
      "COPYRIGHT": 6292,
      "Cheer": 6293,
      "Cheese": 6294,
      "Captain": 6295,
      "Captains": 6296,
      "EXACTLY": 6297,
      "EXCLAIM": 6298,
      "FLUT": 6299,
      "FLOUN": 6300,
      "FORMS": 6301,
      "Imperial": 6302,
      "Immediately": 6303,
      "ILLUSTRA": 6304,
      "North": 6305,
      "Norman": 6306,
      "Overman": 6307,
      "SORT": 6308,
      "SORCER": 6309,
      "TOOK": 6310,
      "WHY": 6311,
      "WHAT": 6312,
      "Watch": 6313,
      "Watching": 6314,
      "audience": 6315,
      "authority": 6316,
      "battered": 6317,
      "balance": 6318,
      "balanced": 6319,
      "bangs": 6320,
      "bracelets": 6321,
      "counsel": 6322,
      "differed": 6323,
      "different": 6324,
      "darting": 6325,
      "dwelling": 6326,
      "dwellings": 6327,
      "gallery": 6328,
      "galloping": 6329,
      "grip": 6330,
      "grieve": 6331,
      "ivory": 6332,
      "jerked": 6333,
      "jerky": 6334,
      "knees": 6335,
      "kneeling": 6336,
      "lids": 6337,
      "madly": 6338,
      "nature": 6339,
      "native": 6340,
      "pork": 6341,
      "porous": 6342,
      "praise": 6343,
      "practically": 6344,
      "radiance": 6345,
      "slyly": 6346,
      "salute": 6347,
      "salamander": 6348,
      "sliced": 6349,
      "slippers": 6350,
      "twisting": 6351,
      "twittering": 6352,
      "twinkle": 6353,
      "twinkling": 6354,
      "ventrilo": 6355,
      "heaps": 6356,
      "reflection": 6357,
      "reflectively": 6358,
      "regarded": 6359,
      "resembling": 6360,
      "resemblance": 6361,
      "threatened": 6362,
      "towering": 6363,
      "leaping": 6364,
      "stabs": 6365,
      "stabbing": 6366,
      "ceased": 6367,
      "ceases": 6368,
      "wiggled": 6369,
      "wiggley": 6370,
      "wickedly": 6371,
      "choose": 6372,
      "chooses": 6373,
      "chunk": 6374,
      "chunks": 6375,
      "chuckled": 6376,
      "chuckles": 6377,
      "immediately": 6378,
      "sailor": 6379,
      "rickety": 6380,
      "captor": 6381,
      "captors": 6382,
      "peaked": 6383,
      "summon": 6384,
      "sumptuously": 6385,
      "defference": 6386,
      "defenders": 6387,
      "depends": 6388,
      "depths": 6389,
      "demanding": 6390,
      "manners": 6391,
      "mannuel": 6392,
      "gratified": 6393,
      "gratitude": 6394,
      "fetch": 6395,
      "fetlocks": 6396,
      "fellows": 6397,
      "extreme": 6398,
      "extremely": 6399,
      "plush": 6400,
      "plucked": 6401,
      "active": 6402,
      "activity": 6403,
      "actions": 6404,
      "converse": 6405,
      "conversed": 6406,
      "control": 6407,
      "controlled": 6408,
      "indignant": 6409,
      "indignantly": 6410,
      "dismal": 6411,
      "dismally": 6412,
      "displaying": 6413,
      "commonplace": 6414,
      "composedly": 6415,
      "perfume": 6416,
      "perfumed": 6417,
      "pleading": 6418,
      "pleadingly": 6419,
      "tinkled": 6420,
      "tinkling": 6421,
      "ornaments": 6422,
      "ornamental": 6423,
      "joyous": 6424,
      "joyously": 6425,
      "prettier": 6426,
      "prettiest": 6427,
      "skipped": 6428,
      "deserve": 6429,
      "deserts": 6430,
      "despondent": 6431,
      "despondently": 6432,
      "decorated": 6433,
      "decorating": 6434,
      "jewels": 6435,
      "dampness": 6436,
      "driveway": 6437,
      "pursue": 6438,
      "pursuers": 6439,
      "neighbors": 6440,
      "neighboring": 6441,
      "college": 6442,
      "collecting": 6443,
      "attractive": 6444,
      "attractively": 6445,
      "accepted": 6446,
      "accepting": 6447,
      "fragrant": 6448,
      "fragrance": 6449,
      "transformed": 6450,
      "transparent": 6451,
      "shuddering": 6452,
      "manufacturer": 6453,
      "Athletics": 6454,
      "Seems": 6455,
      "honestly": 6456,
      "influence": 6457,
      "influenced": 6458,
      "ceremony": 6459,
      "ceremonies": 6460,
      "handkerchiefs": 6461,
      "!'\"": 6462,
      "240": 6463,
      "251": 6464,
      "Adjustable": 6465,
      "Ahem": 6466,
      "Another": 6467,
      "Arabian": 6468,
      "Assorted": 6469,
      "BUGG": 6470,
      "Banner": 6471,
      "Barney": 6472,
      "Besides": 6473,
      "Beasts": 6474,
      "BOOKS": 6475,
      "Bailum": 6476,
      "Breakfast": 6477,
      "Cause": 6478,
      "Crash": 6479,
      "Consolidated": 6480,
      "Cornet": 6481,
      "Calling": 6482,
      "Crack": 6483,
      "Court": 6484,
      "Chapter": 6485,
      "CORONAD": 6486,
      "COME": 6487,
      "DNESS": 6488,
      "Dean": 6489,
      "Directly": 6490,
      "Dragon": 6491,
      "Dreadful": 6492,
      "DEDICAT": 6493,
      "Destroyer": 6494,
      "EUREKA": 6495,
      "Emmannuel": 6496,
      "Europe": 6497,
      "Exactly": 6498,
      "Earth": 6499,
      "Educated": 6500,
      "FIRED": 6501,
      "Flutters": 6502,
      "Finally": 6503,
      "Flop": 6504,
      "Fetch": 6505,
      "Fruits": 6506,
      "Frisco": 6507,
      "Francis": 6508,
      "FAIRIES": 6509,
      "GRY": 6510,
      "Gale": 6511,
      "Guess": 6512,
      "Green": 6513,
      "Gabazoos": 6514,
      "Getting": 6515,
      "GOODNESS": 6516,
      "GARDEN": 6517,
      "Gradually": 6518,
      "Holes": 6519,
      "HUNGRY": 6520,
      "HARRIET": 6521,
      "Isaac": 6522,
      "Imported": 6523,
      "JOHN": 6524,
      "Jumping": 6525,
      "KITTEN": 6526,
      "Life": 6527,
      "Lord": 6528,
      "Lady": 6529,
      "LIST": 6530,
      "LESSON": 6531,
      "LEAF": 6532,
      "Machine": 6533,
      "Mortals": 6534,
      "MORROW": 6535,
      "MBLING": 6536,
      "Magnified": 6537,
      "MOUNTAIN": 6538,
      "Nights": 6539,
      "National": 6540,
      "Opening": 6541,
      "Pah": 6542,
      "Post": 6543,
      "Powder": 6544,
      "Phadrig": 6545,
      "Piglets": 6546,
      "PERFORMS": 6547,
      "PARASOL": 6548,
      "PAGE": 6549,
      "Prickly": 6550,
      "PEOPLE": 6551,
      "Rustles": 6552,
      "RANCH": 6553,
      "RESERVED": 6554,
      "RETURNS": 6555,
      "ROOM": 6556,
      "Science": 6557,
      "Spangled": 6558,
      "Swiss": 6559,
      "Sorry": 6560,
      "Swiftly": 6561,
      "Still": 6562,
      "Silver": 6563,
      "Shoes": 6564,
      "Shows": 6565,
      "SIGNAL": 6566,
      "Scientific": 6567,
      "STOOD": 6568,
      "SLOWLY": 6569,
      "TWO": 6570,
      "Teenty": 6571,
      "Terrible": 6572,
      "Talk": 6573,
      "True": 6574,
      "Tastes": 6575,
      "TIGER": 6576,
      "TRIAL": 6577,
      "TREMBLING": 6578,
      "Twining": 6579,
      "TEACHES": 6580,
      "TRICK": 6581,
      "Vegetable": 6582,
      "Wait": 6583,
      "Whenever": 6584,
      "Working": 6585,
      "Woogh": 6586,
      "WARNING": 6587,
      "Young": 6588,
      "YORK": 6589,
      "Zoroaster": 6590,
      "_me_": 6591,
      "_we_": 6592,
      "_you_": 6593,
      "_immejit": 6594,
      "_can_": 6595,
      "_go_": 6596,
      "_any_": 6597,
      "_down_": 6598,
      "_We_": 6599,
      "_know_": 6600,
      "_beau": 6601,
      "_went_": 6602,
      "_real_": 6603,
      "_almost_": 6604,
      "_climb_": 6605,
      "average": 6606,
      "apology": 6607,
      "avoid": 6608,
      "breast": 6609,
      "barrels": 6610,
      "bunting": 6611,
      "bitterly": 6612,
      "baggage": 6613,
      "brushing": 6614,
      "blooming": 6615,
      "billows": 6616,
      "breeding": 6617,
      "bashfully": 6618,
      "creeping": 6619,
      "crocodi": 6620,
      "cunning": 6621,
      "credit": 6622,
      "cousins": 6623,
      "creaked": 6624,
      "crooked": 6625,
      "criss": 6626,
      "crestfallen": 6627,
      "crunching": 6628,
      "drowned": 6629,
      "dying": 6630,
      "doughnut": 6631,
      "dangle": 6632,
      "dummy": 6633,
      "dawn": 6634,
      "dwindled": 6635,
      "daunted": 6636,
      "embarrassment": 6637,
      "fancy": 6638,
      "fowl": 6639,
      "frolicking": 6640,
      "future": 6641,
      "farewell": 6642,
      "fantastic": 6643,
      "fountains": 6644,
      "fascinated": 6645,
      "gnize": 6646,
      "gambolling": 6647,
      "generally": 6648,
      "higher": 6649,
      "jugglers": 6650,
      "jagged": 6651,
      "jamming": 6652,
      "jaws": 6653,
      "judgment": 6654,
      "lofty": 6655,
      "lustily": 6656,
      "luscious": 6657,
      "lashing": 6658,
      "length": 6659,
      "morsel": 6660,
      "mixed": 6661,
      "nasty": 6662,
      "nickle": 6663,
      "naturally": 6664,
      "naughty": 6665,
      "oceri": 6666,
      "panic": 6667,
      "punished": 6668,
      "populace": 6669,
      "pityingly": 6670,
      "portrait": 6671,
      "piercing": 6672,
      "pivot": 6673,
      "rasping": 6674,
      "rattled": 6675,
      "rascals": 6676,
      "rhinoceri": 6677,
      "sandy": 6678,
      "softest": 6679,
      "school": 6680,
      "similar": 6681,
      "scoting": 6682,
      "songs": 6683,
      "swollen": 6684,
      "shapes": 6685,
      "slander": 6686,
      "titles": 6687,
      "timorously": 6688,
      "tapped": 6689,
      "tousled": 6690,
      "tranquil": 6691,
      "trunks": 6692,
      "trusted": 6693,
      "ushered": 6694,
      "virtues": 6695,
      "vassal": 6696,
      "villages": 6697,
      "view": 6698,
      "vacant": 6699,
      "wedged": 6700,
      "winging": 6701,
      "widow": 6702,
      "writhing": 6703,
      "wainscoting": 6704,
      "waffles": 6705,
      "watered": 6706,
      "wrists": 6707,
      "wistfully": 6708,
      "warrior": 6709,
      "zebra": 6710,
      "heroine": 6711,
      "antics": 6712,
      "recognize": 6713,
      "resume": 6714,
      "refuse": 6715,
      "rebuke": 6716,
      "reaches": 6717,
      "reclined": 6718,
      "rewarded": 6719,
      "retainers": 6720,
      "refreshed": 6721,
      "insect": 6722,
      "insults": 6723,
      "inventor": 6724,
      "invaluable": 6725,
      "inspecting": 6726,
      "throat": 6727,
      "educated": 6728,
      "tocratic": 6729,
      "atmosphere": 6730,
      "aristocratic": 6731,
      "arrogant": 6732,
      "article": 6733,
      "aroused": 6734,
      "assemblage": 6735,
      "associating": 6736,
      "assurance": 6737,
      "assembled": 6738,
      "enraptured": 6739,
      "entombed": 6740,
      "encounter": 6741,
      "encrusted": 6742,
      "leagued": 6743,
      "secluded": 6744,
      "stroke": 6745,
      "behaved": 6746,
      "bewildered": 6747,
      "messengers": 6748,
      "adopt": 6749,
      "wealth": 6750,
      "vehicle": 6751,
      "challenge": 6752,
      "chinks": 6753,
      "chipped": 6754,
      "alligators": 6755,
      "immemorial": 6756,
      "soothingly": 6757,
      "sovereignty": 6758,
      "escorted": 6759,
      "sapphires": 6760,
      "whistle": 6761,
      "rippling": 6762,
      "liberate": 6763,
      "unlawful": 6764,
      "untying": 6765,
      "unevenly": 6766,
      "uneasiness": 6767,
      "unreasonable": 6768,
      "unhooked": 6769,
      "peculiar": 6770,
      "pebbles": 6771,
      "neighed": 6772,
      "haughty": 6773,
      "modestly": 6774,
      "fussy": 6775,
      "ignorant": 6776,
      "lagging": 6777,
      "lambs": 6778,
      "declare": 6779,
      "defiantly": 6780,
      "delayed": 6781,
      "grinding": 6782,
      "terrifying": 6783,
      "aggregation": 6784,
      "ambition": 6785,
      "dollars": 6786,
      "buffaloes": 6787,
      "bullets": 6788,
      "Zebediah": 6789,
      "pompously": 6790,
      "excursion": 6791,
      "exhibit": 6792,
      "plums": 6793,
      "plentifully": 6794,
      "accomplishes": 6795,
      "acquire": 6796,
      "accompanied": 6797,
      "ruffled": 6798,
      "rudeness": 6799,
      "convenience": 6800,
      "concerned": 6801,
      "constructed": 6802,
      "confining": 6803,
      "consisted": 6804,
      "contemptuous": 6805,
      "concealed": 6806,
      "assortment": 6807,
      "Professor": 6808,
      "approval": 6809,
      "appreciate": 6810,
      "applauded": 6811,
      "repulsed": 6812,
      "indicate": 6813,
      "individual": 6814,
      "telescope": 6815,
      "teachings": 6816,
      "illuminated": 6817,
      "holiday": 6818,
      "disclosing": 6819,
      "disguise": 6820,
      "disappointment": 6821,
      "stratagem": 6822,
      "clumsy": 6823,
      "glistening": 6824,
      "complexions": 6825,
      "prevented": 6826,
      "periods": 6827,
      "screeched": 6828,
      "tyrants": 6829,
      "Animals": 6830,
      "achievement": 6831,
      "fixture": 6832,
      "awakened": 6833,
      "traceries": 6834,
      "puffed": 6835,
      "spectators": 6836,
      "easiest": 6837,
      "sunbeams": 6838,
      "bowsprits": 6839,
      "mistress": 6840,
      "ANOTHER": 6841,
      "roughest": 6842,
      "Unhitch": 6843,
      "Official": 6844,
      "material": 6845,
      "Atlantis": 6846,
      "WILLIAM": 6847,
      "correcting": 6848,
      "criticise": 6849,
      "favorite": 6850,
      "Perceiving": 6851,
      "substantial": 6852,
      "significantly": 6853,
      "politician": 6854,
      "REALLY": 6855,
      "slumberland": 6856,
      "grasshoppers": 6857,
      "Chicago": 6858,
      "sympathetically": 6859,
      "acquaintance": 6860,
      "umbrella": 6861,
      "EXCLAIMED": 6862,
      "FLUTTERED": 6863,
      "FLOUNDERED": 6864,
      "ILLUSTRATED": 6865,
      "SORCERER": 6866,
      "ventriloquism": 6867,
      "BUGGY": 6868,
      "CORONADO": 6869,
      "DEDICATED": 6870,
      "Francisco": 6871,
      "_immejitly_": 6872,
      "crocodiles": 6873,
      "doughnuts": 6874
    },
    "merges": [
      [
        "h",
        "e"
      ],
      [
        "t",
        "he"
      ],
      [
        "a",
        "n"
      ],
      [
        "r",
        "e"
      ],
      [
        "i",
        "n"
      ],
      [
        "o",
        "u"
      ],
      [
        "t",
        "h"
      ],
      [
        "e",
        "d"
      ],
      [
        "an",
        "d"
      ],
      [
        "t",
        "o"
      ],
      [
        "a",
        "t"
      ],
      [
        "o",
        "n"
      ],
      [
        "e",
        "r"
      ],
      [
        "a",
        "r"
      ],
      [
        "a",
        "s"
      ],
      [
        "o",
        "r"
      ],
      [
        "e",
        "n"
      ],
      [
        "l",
        "e"
      ],
      [
        "i",
        "s"
      ],
      [
        "l",
        "l"
      ],
      [
        "o",
        "f"
      ],
      [
        "in",
        "g"
      ],
      [
        "i",
        "t"
      ],
      [
        "s",
        "e"
      ],
      [
        "s",
        "t"
      ],
      [
        "b",
        "e"
      ],
      [
        "m",
        "e"
      ],
      [
        "a",
        "d"
      ],
      [
        "o",
        "w"
      ],
      [
        "c",
        "e"
      ],
      [
        "i",
        "d"
      ],
      [
        "w",
        "e"
      ],
      [
        "l",
        "y"
      ],
      [
        "y",
        "ou"
      ],
      [
        ",",
        "\""
      ],
      [
        "a",
        "l"
      ],
      [
        "v",
        "e"
      ],
      [
        "r",
        "o"
      ],
      [
        "i",
        "r"
      ],
      [
        "w",
        "i"
      ],
      [
        "u",
        "t"
      ],
      [
        "g",
        "h"
      ],
      [
        "w",
        "as"
      ],
      [
        "n",
        "o"
      ],
      [
        "c",
        "h"
      ],
      [
        "a",
        "ll"
      ],
      [
        "i",
        "m"
      ],
      [
        "ar",
        "d"
      ],
      [
        ".",
        "\""
      ],
      [
        "T",
        "he"
      ],
      [
        "s",
        "o"
      ],
      [
        "e",
        "s"
      ],
      [
        "th",
        "at"
      ],
      [
        "l",
        "d"
      ],
      [
        "v",
        "er"
      ],
      [
        "s",
        "a"
      ],
      [
        "w",
        "h"
      ],
      [
        "o",
        "o"
      ],
      [
        "the",
        "y"
      ],
      [
        "r",
        "i"
      ],
      [
        "c",
        "k"
      ],
      [
        "f",
        "or"
      ],
      [
        "l",
        "i"
      ],
      [
        "u",
        "n"
      ],
      [
        "re",
        "d"
      ],
      [
        "wi",
        "th"
      ],
      [
        "c",
        "a"
      ],
      [
        "gh",
        "t"
      ],
      [
        "h",
        "is"
      ],
      [
        "a",
        "y"
      ],
      [
        "t",
        "i"
      ],
      [
        "ou",
        "n"
      ],
      [
        "h",
        "ad"
      ],
      [
        "g",
        "e"
      ],
      [
        "p",
        "e"
      ],
      [
        "i",
        "z"
      ],
      [
        "r",
        "a"
      ],
      [
        "u",
        "p"
      ],
      [
        "the",
        "m"
      ],
      [
        "o",
        "th"
      ],
      [
        "sa",
        "id"
      ],
      [
        "n",
        "e"
      ],
      [
        "h",
        "a"
      ],
      [
        "W",
        "iz"
      ],
      [
        "Wiz",
        "ard"
      ],
      [
        "the",
        "r"
      ],
      [
        "en",
        "t"
      ],
      [
        "we",
        "re"
      ],
      [
        "on",
        "e"
      ],
      [
        "no",
        "t"
      ],
      [
        "D",
        "or"
      ],
      [
        "oth",
        "y"
      ],
      [
        "Dor",
        "othy"
      ],
      [
        "c",
        "o"
      ],
      [
        "a",
        "b"
      ],
      [
        "s",
        "u"
      ],
      [
        "it",
        "t"
      ],
      [
        "a",
        "in"
      ],
      [
        "k",
        "e"
      ],
      [
        "?",
        "\""
      ],
      [
        "ou",
        "ld"
      ],
      [
        "ou",
        "t"
      ],
      [
        "w",
        "he"
      ],
      [
        "a",
        "re"
      ],
      [
        "b",
        "ut"
      ],
      [
        "m",
        "o"
      ],
      [
        "f",
        "u"
      ],
      [
        "k",
        "ed"
      ],
      [
        "u",
        "st"
      ],
      [
        "he",
        "r"
      ],
      [
        "i",
        "g"
      ],
      [
        "l",
        "a"
      ],
      [
        "d",
        "e"
      ],
      [
        "m",
        "an"
      ],
      [
        "s",
        "h"
      ],
      [
        "s",
        "s"
      ],
      [
        "s",
        "he"
      ],
      [
        "or",
        "se"
      ],
      [
        "g",
        "r"
      ],
      [
        "t",
        "er"
      ],
      [
        "w",
        "ay"
      ],
      [
        "th",
        "is"
      ],
      [
        "m",
        "y"
      ],
      [
        "u",
        "re"
      ],
      [
        "l",
        "o"
      ],
      [
        "a",
        "g"
      ],
      [
        "ou",
        "r"
      ],
      [
        "a",
        "m"
      ],
      [
        "oun",
        "d"
      ],
      [
        "J",
        "im"
      ],
      [
        "oo",
        "d"
      ],
      [
        "d",
        "o"
      ],
      [
        "q",
        "u"
      ],
      [
        "b",
        "u"
      ],
      [
        "b",
        "o"
      ],
      [
        "o",
        "p"
      ],
      [
        "ro",
        "m"
      ],
      [
        "f",
        "e"
      ],
      [
        "u",
        "r"
      ],
      [
        "c",
        "an"
      ],
      [
        "wh",
        "i"
      ],
      [
        "i",
        "on"
      ],
      [
        "B",
        "ut"
      ],
      [
        "on",
        "g"
      ],
      [
        "se",
        "e"
      ],
      [
        "f",
        "rom"
      ],
      [
        "l",
        "itt"
      ],
      [
        "ow",
        "n"
      ],
      [
        "e",
        "b"
      ],
      [
        "g",
        "o"
      ],
      [
        "the",
        "ir"
      ],
      [
        "Z",
        "eb"
      ],
      [
        "en",
        "d"
      ],
      [
        "litt",
        "le"
      ],
      [
        "re",
        "at"
      ],
      [
        "!",
        "\""
      ],
      [
        "t",
        "s"
      ],
      [
        "p",
        "o"
      ],
      [
        "h",
        "orse"
      ],
      [
        "h",
        "im"
      ],
      [
        "ver",
        "y"
      ],
      [
        "n",
        "ow"
      ],
      [
        "o",
        "ther"
      ],
      [
        "ha",
        "ve"
      ],
      [
        "ou",
        "gh"
      ],
      [
        "i",
        "f"
      ],
      [
        "u",
        "s"
      ],
      [
        "r",
        "y"
      ],
      [
        "wi",
        "ll"
      ],
      [
        "e",
        "x"
      ],
      [
        "f",
        "o"
      ],
      [
        "e",
        "t"
      ],
      [
        "e",
        "ar"
      ],
      [
        "ti",
        "me"
      ],
      [
        "th",
        "ing"
      ],
      [
        "id",
        "e"
      ],
      [
        "O",
        "z"
      ],
      [
        "c",
        "ould"
      ],
      [
        "he",
        "d"
      ],
      [
        "g",
        "g"
      ],
      [
        "i",
        "l"
      ],
      [
        "p",
        "l"
      ],
      [
        "in",
        "ce"
      ],
      [
        "up",
        "on"
      ],
      [
        "m",
        "a"
      ],
      [
        "an",
        "y"
      ],
      [
        "fu",
        "l"
      ],
      [
        "a",
        "ir"
      ],
      [
        "t",
        "ed"
      ],
      [
        "a",
        "c"
      ],
      [
        "r",
        "u"
      ],
      [
        "the",
        "re"
      ],
      [
        "whe",
        "n"
      ],
      [
        "whi",
        "ch"
      ],
      [
        "an",
        "g"
      ],
      [
        "in",
        "to"
      ],
      [
        "so",
        "me"
      ],
      [
        "h",
        "at"
      ],
      [
        "as",
        "t"
      ],
      [
        "b",
        "y"
      ],
      [
        "c",
        "on"
      ],
      [
        "er",
        "s"
      ],
      [
        "as",
        "ked"
      ],
      [
        "oun",
        "t"
      ],
      [
        "as",
        "s"
      ],
      [
        "P",
        "r"
      ],
      [
        "a",
        "p"
      ],
      [
        "op",
        "le"
      ],
      [
        "Pr",
        "ince"
      ],
      [
        "l",
        "oo"
      ],
      [
        "re",
        "p"
      ],
      [
        "ou",
        "s"
      ],
      [
        "pe",
        "ople"
      ],
      [
        "w",
        "ould"
      ],
      [
        "in",
        "d"
      ],
      [
        "l",
        "ed"
      ],
      [
        "t",
        "e"
      ],
      [
        "a",
        "f"
      ],
      [
        "s",
        "ide"
      ],
      [
        "an",
        "s"
      ],
      [
        "wh",
        "o"
      ],
      [
        "li",
        "ke"
      ],
      [
        "gg",
        "y"
      ],
      [
        "l",
        "ow"
      ],
      [
        "ge",
        "t"
      ],
      [
        "bu",
        "ggy"
      ],
      [
        "g",
        "ir"
      ],
      [
        "l",
        "ong"
      ],
      [
        "v",
        "ed"
      ],
      [
        "gir",
        "l"
      ],
      [
        "a",
        "ce"
      ],
      [
        "an",
        "t"
      ],
      [
        "T",
        "H"
      ],
      [
        "to",
        "o"
      ],
      [
        "i",
        "ght"
      ],
      [
        "t",
        "a"
      ],
      [
        "ag",
        "ain"
      ],
      [
        "d",
        "id"
      ],
      [
        "i",
        "ll"
      ],
      [
        "le",
        "s"
      ],
      [
        "h",
        "o"
      ],
      [
        "whe",
        "re"
      ],
      [
        "d",
        "own"
      ],
      [
        "you",
        "r"
      ],
      [
        "i",
        "ce"
      ],
      [
        "u",
        "se"
      ],
      [
        "d",
        "er"
      ],
      [
        "g",
        "reat"
      ],
      [
        "t",
        "ur"
      ],
      [
        "d",
        "is"
      ],
      [
        "e",
        "p"
      ],
      [
        "f",
        "ri"
      ],
      [
        "p",
        "ig"
      ],
      [
        "I",
        "t"
      ],
      [
        "o",
        "ver"
      ],
      [
        "The",
        "y"
      ],
      [
        "bo",
        "y"
      ],
      [
        "k",
        "ing"
      ],
      [
        "s",
        "p"
      ],
      [
        "v",
        "o"
      ],
      [
        "in",
        "e"
      ],
      [
        "co",
        "me"
      ],
      [
        "ab",
        "le"
      ],
      [
        "itt",
        "en"
      ],
      [
        "tur",
        "n"
      ],
      [
        "E",
        "ure"
      ],
      [
        "k",
        "a"
      ],
      [
        "th",
        "an"
      ],
      [
        "ca",
        "me"
      ],
      [
        "fo",
        "re"
      ],
      [
        "Eure",
        "ka"
      ],
      [
        "b",
        "le"
      ],
      [
        "b",
        "a"
      ],
      [
        "k",
        "itten"
      ],
      [
        "p",
        "ro"
      ],
      [
        "the",
        "n"
      ],
      [
        "ou",
        "ght"
      ],
      [
        "it",
        "e"
      ],
      [
        "i",
        "ck"
      ],
      [
        "th",
        "r"
      ],
      [
        "mo",
        "re"
      ],
      [
        "fu",
        "ll"
      ],
      [
        "W",
        "e"
      ],
      [
        "TH",
        "E"
      ],
      [
        "-",
        "-"
      ],
      [
        "he",
        "ad"
      ],
      [
        "st",
        "r"
      ],
      [
        "ad",
        "e"
      ],
      [
        "c",
        "l"
      ],
      [
        "g",
        "l"
      ],
      [
        "p",
        "ed"
      ],
      [
        "w",
        "o"
      ],
      [
        "co",
        "m"
      ],
      [
        "H",
        "e"
      ],
      [
        "w",
        "or"
      ],
      [
        "he",
        "re"
      ],
      [
        "at",
        "ion"
      ],
      [
        "be",
        "en"
      ],
      [
        "af",
        "ter"
      ],
      [
        "m",
        "u"
      ],
      [
        "p",
        "re"
      ],
      [
        "re",
        "m"
      ],
      [
        "fri",
        "end"
      ],
      [
        "e",
        "ver"
      ],
      [
        "g",
        "ood"
      ],
      [
        "p",
        "er"
      ],
      [
        "u",
        "m"
      ],
      [
        "li",
        "ght"
      ],
      [
        "ba",
        "ck"
      ],
      [
        "w",
        "ood"
      ],
      [
        "re",
        "ad"
      ],
      [
        "ar",
        "t"
      ],
      [
        "pig",
        "le"
      ],
      [
        "full",
        "y"
      ],
      [
        "S",
        "o"
      ],
      [
        "m",
        "ed"
      ],
      [
        "it",
        "s"
      ],
      [
        "be",
        "fore"
      ],
      [
        "ri",
        "ed"
      ],
      [
        "mu",
        "ch"
      ],
      [
        "m",
        "ade"
      ],
      [
        "re",
        "a"
      ],
      [
        "ab",
        "out"
      ],
      [
        "ear",
        "th"
      ],
      [
        "e",
        "l"
      ],
      [
        "e",
        "at"
      ],
      [
        "p",
        "la"
      ],
      [
        "se",
        "l"
      ],
      [
        "li",
        "ed"
      ],
      [
        "su",
        "re"
      ],
      [
        "vo",
        "ice"
      ],
      [
        "g",
        "re"
      ],
      [
        "m",
        "ust"
      ],
      [
        "s",
        "c"
      ],
      [
        "w",
        "ard"
      ],
      [
        "rep",
        "lied"
      ],
      [
        "a",
        "way"
      ],
      [
        "we",
        "red"
      ],
      [
        "un",
        "ti"
      ],
      [
        "ans",
        "wered"
      ],
      [
        "d",
        "ra"
      ],
      [
        "e",
        "y"
      ],
      [
        "i",
        "c"
      ],
      [
        "n",
        "es"
      ],
      [
        "v",
        "en"
      ],
      [
        "to",
        "p"
      ],
      [
        "ar",
        "ound"
      ],
      [
        "The",
        "n"
      ],
      [
        "unti",
        "l"
      ],
      [
        "c",
        "la"
      ],
      [
        "p",
        "le"
      ],
      [
        "ing",
        "s"
      ],
      [
        "Prince",
        "ss"
      ],
      [
        "wood",
        "en"
      ],
      [
        "N",
        "o"
      ],
      [
        "j",
        "ust"
      ],
      [
        "k",
        "now"
      ],
      [
        "t",
        "y"
      ],
      [
        "t",
        "in"
      ],
      [
        "re",
        "r"
      ],
      [
        "wh",
        "at"
      ],
      [
        "f",
        "ace"
      ],
      [
        "at",
        "e"
      ],
      [
        "it",
        "y"
      ],
      [
        "ve",
        "s"
      ],
      [
        "turn",
        "ed"
      ],
      [
        "thr",
        "ough"
      ],
      [
        "Y",
        "ou"
      ],
      [
        "s",
        "m"
      ],
      [
        "ca",
        "use"
      ],
      [
        "pigle",
        "ts"
      ],
      [
        "m",
        "s"
      ],
      [
        "w",
        "on"
      ],
      [
        "an",
        "ce"
      ],
      [
        "is",
        "h"
      ],
      [
        "ha",
        "p"
      ],
      [
        "W",
        "hat"
      ],
      [
        "b",
        "ig"
      ],
      [
        "c",
        "ount"
      ],
      [
        "i",
        "ld"
      ],
      [
        "in",
        "k"
      ],
      [
        "ll",
        "ow"
      ],
      [
        "be",
        "g"
      ],
      [
        "be",
        "cause"
      ],
      [
        "or",
        "ce"
      ],
      [
        "en",
        "ed"
      ],
      [
        "bo",
        "d"
      ],
      [
        "orce",
        "rer"
      ],
      [
        "c",
        "ed"
      ],
      [
        "c",
        "reat"
      ],
      [
        "d",
        "on"
      ],
      [
        "Oz",
        "ma"
      ],
      [
        "pla",
        "ce"
      ],
      [
        "v",
        "ing"
      ],
      [
        "the",
        "se"
      ],
      [
        "on",
        "ce"
      ],
      [
        "ro",
        "o"
      ],
      [
        "qu",
        "e"
      ],
      [
        "ey",
        "es"
      ],
      [
        "A",
        "n"
      ],
      [
        "G",
        "ar"
      ],
      [
        "S",
        "orcerer"
      ],
      [
        "c",
        "t"
      ],
      [
        "c",
        "all"
      ],
      [
        "m",
        "ent"
      ],
      [
        "t",
        "wo"
      ],
      [
        "be",
        "ing"
      ],
      [
        "ust",
        "r"
      ],
      [
        "man",
        "y"
      ],
      [
        "gr",
        "ow"
      ],
      [
        "go",
        "y"
      ],
      [
        "Gar",
        "goy"
      ],
      [
        "a",
        "red"
      ],
      [
        "ne",
        "ar"
      ],
      [
        "ap",
        "pe"
      ],
      [
        "b",
        "l"
      ],
      [
        "b",
        "rea"
      ],
      [
        "i",
        "ly"
      ],
      [
        "v",
        "is"
      ],
      [
        "or",
        "n"
      ],
      [
        "ri",
        "ght"
      ],
      [
        "mo",
        "st"
      ],
      [
        "gl",
        "ass"
      ],
      [
        "I",
        "ll"
      ],
      [
        "M",
        "ang"
      ],
      [
        "b",
        "r"
      ],
      [
        "c",
        "le"
      ],
      [
        "ne",
        "ver"
      ],
      [
        "ab",
        "oo"
      ],
      [
        "whi",
        "le"
      ],
      [
        "creat",
        "ure"
      ],
      [
        "ustr",
        "ation"
      ],
      [
        "Ill",
        "ustration"
      ],
      [
        "Mang",
        "aboo"
      ],
      [
        "a",
        "ve"
      ],
      [
        "c",
        "ried"
      ],
      [
        "g",
        "s"
      ],
      [
        "w",
        "al"
      ],
      [
        "an",
        "other"
      ],
      [
        "le",
        "ss"
      ],
      [
        "ch",
        "ild"
      ],
      [
        "all",
        "y"
      ],
      [
        "so",
        "on"
      ],
      [
        "su",
        "r"
      ],
      [
        "ount",
        "ain"
      ],
      [
        "I",
        "n"
      ],
      [
        "T",
        "hat"
      ],
      [
        "f",
        "ir"
      ],
      [
        "le",
        "t"
      ],
      [
        "S",
        "a"
      ],
      [
        "a",
        "ch"
      ],
      [
        "c",
        "he"
      ],
      [
        "f",
        "i"
      ],
      [
        "f",
        "lo"
      ],
      [
        "i",
        "es"
      ],
      [
        "i",
        "ous"
      ],
      [
        "k",
        "s"
      ],
      [
        "o",
        "se"
      ],
      [
        "o",
        "ld"
      ],
      [
        "re",
        "e"
      ],
      [
        "re",
        "n"
      ],
      [
        "ca",
        "re"
      ],
      [
        "friend",
        "s"
      ],
      [
        "Gargoy",
        "les"
      ],
      [
        "L",
        "and"
      ],
      [
        "c",
        "hed"
      ],
      [
        "d",
        "d"
      ],
      [
        "m",
        "er"
      ],
      [
        "r",
        "is"
      ],
      [
        "to",
        "ge"
      ],
      [
        "st",
        "ar"
      ],
      [
        "be",
        "a"
      ],
      [
        "beg",
        "an"
      ],
      [
        "toge",
        "ther"
      ],
      [
        "I",
        "f"
      ],
      [
        "b",
        "ro"
      ],
      [
        "d",
        "ay"
      ],
      [
        "f",
        "ast"
      ],
      [
        "t",
        "ing"
      ],
      [
        "th",
        "ose"
      ],
      [
        "be",
        "ar"
      ],
      [
        "The",
        "re"
      ],
      [
        "wh",
        "orse"
      ],
      [
        "ti",
        "on"
      ],
      [
        "thing",
        "s"
      ],
      [
        "ma",
        "ke"
      ],
      [
        "count",
        "ry"
      ],
      [
        "An",
        "d"
      ],
      [
        "Mangaboo",
        "s"
      ],
      [
        "e",
        "ven"
      ],
      [
        "i",
        "gh"
      ],
      [
        "m",
        "ountain"
      ],
      [
        "th",
        "ought"
      ],
      [
        "gr",
        "ound"
      ],
      [
        "ear",
        "s"
      ],
      [
        "nes",
        "s"
      ],
      [
        "bea",
        "ut"
      ],
      [
        "E",
        "R"
      ],
      [
        "f",
        "t"
      ],
      [
        "h",
        "and"
      ],
      [
        "u",
        "l"
      ],
      [
        "ou",
        "se"
      ],
      [
        "or",
        "t"
      ],
      [
        "en",
        "ough"
      ],
      [
        "sa",
        "w"
      ],
      [
        "ple",
        "as"
      ],
      [
        "fir",
        "st"
      ],
      [
        "d",
        "s"
      ],
      [
        "e",
        "very"
      ],
      [
        "i",
        "ble"
      ],
      [
        "r",
        "ow"
      ],
      [
        "s",
        "at"
      ],
      [
        "s",
        "er"
      ],
      [
        "he",
        "n"
      ],
      [
        "on",
        "ly"
      ],
      [
        "ar",
        "ked"
      ],
      [
        "ro",
        "ck"
      ],
      [
        "qu",
        "i"
      ],
      [
        "te",
        "ll"
      ],
      [
        "rem",
        "arked"
      ],
      [
        "sel",
        "f"
      ],
      [
        "hap",
        "p"
      ],
      [
        "d",
        "i"
      ],
      [
        "d",
        "re"
      ],
      [
        "h",
        "as"
      ],
      [
        "w",
        "ent"
      ],
      [
        "w",
        "ings"
      ],
      [
        "an",
        "ge"
      ],
      [
        "re",
        "st"
      ],
      [
        "at",
        "ed"
      ],
      [
        "st",
        "ill"
      ],
      [
        "un",
        "der"
      ],
      [
        "loo",
        "ked"
      ],
      [
        "low",
        "ly"
      ],
      [
        "bod",
        "y"
      ],
      [
        "child",
        "ren"
      ],
      [
        "Sa",
        "whorse"
      ],
      [
        "beaut",
        "i"
      ],
      [
        "a",
        "w"
      ],
      [
        "f",
        "ound"
      ],
      [
        "h",
        "ow"
      ],
      [
        "j",
        "o"
      ],
      [
        "t",
        "ra"
      ],
      [
        "w",
        "at"
      ],
      [
        "en",
        "ce"
      ],
      [
        "se",
        "en"
      ],
      [
        "we",
        "ll"
      ],
      [
        "es",
        "ca"
      ],
      [
        "ne",
        "w"
      ],
      [
        "qu",
        "ite"
      ],
      [
        "see",
        "med"
      ],
      [
        "O",
        "h"
      ],
      [
        "a",
        "th"
      ],
      [
        "l",
        "and"
      ],
      [
        "m",
        "ay"
      ],
      [
        "s",
        "to"
      ],
      [
        "of",
        "t"
      ],
      [
        "loo",
        "k"
      ],
      [
        "ta",
        "ke"
      ],
      [
        "pre",
        "t"
      ],
      [
        "call",
        "ed"
      ],
      [
        "A",
        "R"
      ],
      [
        "I",
        "N"
      ],
      [
        "T",
        "his"
      ],
      [
        "W",
        "hen"
      ],
      [
        "a",
        "ge"
      ],
      [
        "c",
        "lo"
      ],
      [
        "i",
        "ve"
      ],
      [
        "p",
        "u"
      ],
      [
        "p",
        "ut"
      ],
      [
        "s",
        "pe"
      ],
      [
        "u",
        "g"
      ],
      [
        "re",
        "turned"
      ],
      [
        "en",
        "s"
      ],
      [
        "be",
        "t"
      ],
      [
        "go",
        "t"
      ],
      [
        "ac",
        "t"
      ],
      [
        "too",
        "k"
      ],
      [
        "str",
        "ange"
      ],
      [
        "dra",
        "g"
      ],
      [
        "W",
        "h"
      ],
      [
        "b",
        "ed"
      ],
      [
        "b",
        "all"
      ],
      [
        "e",
        "as"
      ],
      [
        "s",
        "too"
      ],
      [
        "s",
        "lowly"
      ],
      [
        "ro",
        "of"
      ],
      [
        "ca",
        "b"
      ],
      [
        "su",
        "ch"
      ],
      [
        "op",
        "en"
      ],
      [
        "fe",
        "w"
      ],
      [
        "can",
        "not"
      ],
      [
        "won",
        "der"
      ],
      [
        "beauti",
        "ful"
      ],
      [
        "stoo",
        "d"
      ],
      [
        "H",
        "ow"
      ],
      [
        "c",
        "ra"
      ],
      [
        "f",
        "ar"
      ],
      [
        "f",
        "our"
      ],
      [
        "h",
        "un"
      ],
      [
        "n",
        "s"
      ],
      [
        "p",
        "ris"
      ],
      [
        "s",
        "un"
      ],
      [
        "s",
        "il"
      ],
      [
        "y",
        "e"
      ],
      [
        "re",
        "al"
      ],
      [
        "in",
        "t"
      ],
      [
        "en",
        "qui"
      ],
      [
        "le",
        "y"
      ],
      [
        "is",
        "e"
      ],
      [
        "se",
        "ver"
      ],
      [
        "st",
        "e"
      ],
      [
        "im",
        "al"
      ],
      [
        "ra",
        "id"
      ],
      [
        "Wh",
        "y"
      ],
      [
        "sever",
        "al"
      ],
      [
        "b",
        "ow"
      ],
      [
        "c",
        "our"
      ],
      [
        "e",
        "ach"
      ],
      [
        "g",
        "ra"
      ],
      [
        "p",
        "t"
      ],
      [
        "s",
        "ing"
      ],
      [
        "s",
        "ent"
      ],
      [
        "he",
        "ard"
      ],
      [
        "an",
        "imal"
      ],
      [
        "to",
        "ward"
      ],
      [
        "st",
        "air"
      ],
      [
        "ad",
        "v"
      ],
      [
        "fo",
        "llow"
      ],
      [
        "roo",
        "m"
      ],
      [
        "appe",
        "ared"
      ],
      [
        "flo",
        "or"
      ],
      [
        "bear",
        "s"
      ],
      [
        "c",
        "at"
      ],
      [
        "c",
        "ar"
      ],
      [
        "d",
        "read"
      ],
      [
        "i",
        "e"
      ],
      [
        "p",
        "ick"
      ],
      [
        "r",
        "an"
      ],
      [
        "u",
        "e"
      ],
      [
        "he",
        "l"
      ],
      [
        "at",
        "t"
      ],
      [
        "of",
        "f"
      ],
      [
        "al",
        "d"
      ],
      [
        "ve",
        "red"
      ],
      [
        "ne",
        "ed"
      ],
      [
        "gr",
        "y"
      ],
      [
        "lo",
        "ve"
      ],
      [
        "pl",
        "ain"
      ],
      [
        "cl",
        "im"
      ],
      [
        "pret",
        "ty"
      ],
      [
        "enqui",
        "red"
      ],
      [
        "a",
        "z"
      ],
      [
        "d",
        "ed"
      ],
      [
        "f",
        "l"
      ],
      [
        "f",
        "le"
      ],
      [
        "h",
        "ouse"
      ],
      [
        "m",
        "is"
      ],
      [
        "s",
        "k"
      ],
      [
        "s",
        "top"
      ],
      [
        "y",
        "al"
      ],
      [
        "th",
        "ough"
      ],
      [
        "en",
        "e"
      ],
      [
        "le",
        "ft"
      ],
      [
        "al",
        "ley"
      ],
      [
        "ve",
        "l"
      ],
      [
        "im",
        "ed"
      ],
      [
        "ck",
        "ed"
      ],
      [
        "co",
        "vered"
      ],
      [
        "sh",
        "ow"
      ],
      [
        "ex",
        "cla"
      ],
      [
        "sel",
        "ves"
      ],
      [
        "sm",
        "all"
      ],
      [
        "dd",
        "en"
      ],
      [
        "bro",
        "ad"
      ],
      [
        "cour",
        "se"
      ],
      [
        "excla",
        "imed"
      ],
      [
        "A",
        "N"
      ],
      [
        "A",
        "P"
      ],
      [
        "Y",
        "es"
      ],
      [
        "b",
        "er"
      ],
      [
        "c",
        "ent"
      ],
      [
        "c",
        "ity"
      ],
      [
        "f",
        "ind"
      ],
      [
        "g",
        "ard"
      ],
      [
        "n",
        "ing"
      ],
      [
        "o",
        "on"
      ],
      [
        "p",
        "ass"
      ],
      [
        "r",
        "ou"
      ],
      [
        "r",
        "un"
      ],
      [
        "le",
        "gs"
      ],
      [
        "is",
        "hed"
      ],
      [
        "se",
        "t"
      ],
      [
        "st",
        "re"
      ],
      [
        "st",
        "and"
      ],
      [
        "oo",
        "k"
      ],
      [
        "de",
        "ar"
      ],
      [
        "de",
        "cla"
      ],
      [
        "do",
        "or"
      ],
      [
        "po",
        "ck"
      ],
      [
        "ac",
        "hed"
      ],
      [
        "con",
        "tin"
      ],
      [
        "gre",
        "en"
      ],
      [
        "dra",
        "w"
      ],
      [
        "brea",
        "th"
      ],
      [
        "br",
        "ought"
      ],
      [
        "creature",
        "s"
      ],
      [
        "esca",
        "pe"
      ],
      [
        "decla",
        "red"
      ],
      [
        "C",
        "H"
      ],
      [
        "E",
        "S"
      ],
      [
        "O",
        "n"
      ],
      [
        "S",
        "he"
      ],
      [
        "T",
        "o"
      ],
      [
        "b",
        "led"
      ],
      [
        "c",
        "ir"
      ],
      [
        "e",
        "red"
      ],
      [
        "h",
        "ar"
      ],
      [
        "l",
        "ing"
      ],
      [
        "m",
        "ight"
      ],
      [
        "n",
        "ine"
      ],
      [
        "o",
        "b"
      ],
      [
        "p",
        "al"
      ],
      [
        "s",
        "n"
      ],
      [
        "t",
        "ain"
      ],
      [
        "u",
        "ght"
      ],
      [
        "w",
        "r"
      ],
      [
        "in",
        "ed"
      ],
      [
        "le",
        "ep"
      ],
      [
        "ce",
        "ss"
      ],
      [
        "ve",
        "get"
      ],
      [
        "no",
        "thing"
      ],
      [
        "sa",
        "y"
      ],
      [
        "for",
        "m"
      ],
      [
        "li",
        "e"
      ],
      [
        "ha",
        "ving"
      ],
      [
        "mo",
        "ment"
      ],
      [
        "lo",
        "red"
      ],
      [
        "gre",
        "w"
      ],
      [
        "tin",
        "y"
      ],
      [
        "ball",
        "oon"
      ],
      [
        "follow",
        "ed"
      ],
      [
        "pal",
        "ace"
      ],
      [
        "A",
        "s"
      ],
      [
        "T",
        "ER"
      ],
      [
        "c",
        "er"
      ],
      [
        "d",
        "es"
      ],
      [
        "f",
        "all"
      ],
      [
        "g",
        "ave"
      ],
      [
        "h",
        "al"
      ],
      [
        "k",
        "n"
      ],
      [
        "l",
        "an"
      ],
      [
        "u",
        "ed"
      ],
      [
        "he",
        "s"
      ],
      [
        "in",
        "s"
      ],
      [
        "in",
        "vis"
      ],
      [
        "th",
        "ink"
      ],
      [
        "to",
        "n"
      ],
      [
        "is",
        "n"
      ],
      [
        "is",
        "t"
      ],
      [
        "al",
        "most"
      ],
      [
        "ent",
        "ure"
      ],
      [
        "co",
        "lored"
      ],
      [
        "su",
        "dden"
      ],
      [
        "de",
        "c"
      ],
      [
        "sh",
        "all"
      ],
      [
        "way",
        "s"
      ],
      [
        "ag",
        "ic"
      ],
      [
        "go",
        "ing"
      ],
      [
        "po",
        "s"
      ],
      [
        "other",
        "s"
      ],
      [
        "a",
        "me"
      ],
      [
        "g",
        "ed"
      ],
      [
        "h",
        "ur"
      ],
      [
        "j",
        "e"
      ],
      [
        "k",
        "en"
      ],
      [
        "l",
        "ast"
      ],
      [
        "m",
        "p"
      ],
      [
        "m",
        "ind"
      ],
      [
        "n",
        "er"
      ],
      [
        "p",
        "ers"
      ],
      [
        "s",
        "ig"
      ],
      [
        "w",
        "a"
      ],
      [
        "w",
        "ish"
      ],
      [
        "he",
        "ld"
      ],
      [
        "re",
        "ached"
      ],
      [
        "in",
        "side"
      ],
      [
        "to",
        "ld"
      ],
      [
        "to",
        "ne"
      ],
      [
        "on",
        "s"
      ],
      [
        "ar",
        "k"
      ],
      [
        "ar",
        "ri"
      ],
      [
        "se",
        "at"
      ],
      [
        "st",
        "ra"
      ],
      [
        "st",
        "ep"
      ],
      [
        "ke",
        "ep"
      ],
      [
        "gr",
        "ass"
      ],
      [
        "us",
        "ed"
      ],
      [
        "time",
        "s"
      ],
      [
        "loo",
        "king"
      ],
      [
        "str",
        "ang"
      ],
      [
        "mer",
        "ald"
      ],
      [
        "bet",
        "ter"
      ],
      [
        "cra",
        "ck"
      ],
      [
        "AP",
        "TER"
      ],
      [
        "pock",
        "et"
      ],
      [
        "contin",
        "ued"
      ],
      [
        "CH",
        "APTER"
      ],
      [
        ".",
        "]"
      ],
      [
        "A",
        "ll"
      ],
      [
        "D",
        "o"
      ],
      [
        "J",
        "ust"
      ],
      [
        "O",
        "F"
      ],
      [
        "O",
        "R"
      ],
      [
        "b",
        "oth"
      ],
      [
        "c",
        "as"
      ],
      [
        "c",
        "row"
      ],
      [
        "f",
        "air"
      ],
      [
        "i",
        "x"
      ],
      [
        "l",
        "ar"
      ],
      [
        "r",
        "ound"
      ],
      [
        "s",
        "id"
      ],
      [
        "s",
        "oft"
      ],
      [
        "t",
        "al"
      ],
      [
        "t",
        "ry"
      ],
      [
        "t",
        "ru"
      ],
      [
        "x",
        "t"
      ],
      [
        "y",
        "ears"
      ],
      [
        "ar",
        "p"
      ],
      [
        "st",
        "ant"
      ],
      [
        "ra",
        "ce"
      ],
      [
        "sh",
        "arp"
      ],
      [
        "dis",
        "t"
      ],
      [
        "wor",
        "d"
      ],
      [
        "veget",
        "able"
      ],
      [
        "lan",
        "ter"
      ],
      [
        "strang",
        "ers"
      ],
      [
        "U",
        "n"
      ],
      [
        "c",
        "ted"
      ],
      [
        "d",
        "am"
      ],
      [
        "f",
        "low"
      ],
      [
        "f",
        "ine"
      ],
      [
        "h",
        "ard"
      ],
      [
        "h",
        "um"
      ],
      [
        "p",
        "ar"
      ],
      [
        "p",
        "art"
      ],
      [
        "s",
        "ha"
      ],
      [
        "s",
        "pl"
      ],
      [
        "s",
        "ix"
      ],
      [
        "y",
        "et"
      ],
      [
        "an",
        "ts"
      ],
      [
        "th",
        "ree"
      ],
      [
        "ed",
        "ge"
      ],
      [
        "le",
        "ad"
      ],
      [
        "st",
        "u"
      ],
      [
        "be",
        "side"
      ],
      [
        "al",
        "so"
      ],
      [
        "ri",
        "es"
      ],
      [
        "li",
        "ve"
      ],
      [
        "ne",
        "xt"
      ],
      [
        "mo",
        "ther"
      ],
      [
        "la",
        "ck"
      ],
      [
        "sh",
        "o"
      ],
      [
        "she",
        "d"
      ],
      [
        "fe",
        "ll"
      ],
      [
        "gl",
        "ad"
      ],
      [
        "rem",
        "ain"
      ],
      [
        "read",
        "y"
      ],
      [
        "que",
        "er"
      ],
      [
        "sur",
        "face"
      ],
      [
        "dre",
        "w"
      ],
      [
        "adv",
        "enture"
      ],
      [
        "pick",
        "ed"
      ],
      [
        "gard",
        "ens"
      ],
      [
        "lar",
        "ge"
      ],
      [
        "F",
        "or"
      ],
      [
        "O",
        "f"
      ],
      [
        "V",
        "alley"
      ],
      [
        "W",
        "here"
      ],
      [
        "b",
        "it"
      ],
      [
        "f",
        "ru"
      ],
      [
        "f",
        "ight"
      ],
      [
        "h",
        "all"
      ],
      [
        "i",
        "ther"
      ],
      [
        "n",
        "ame"
      ],
      [
        "t",
        "ri"
      ],
      [
        "t",
        "un"
      ],
      [
        "t",
        "able"
      ],
      [
        "ar",
        "ms"
      ],
      [
        "ll",
        "ed"
      ],
      [
        "st",
        "art"
      ],
      [
        "me",
        "ans"
      ],
      [
        "ad",
        "ded"
      ],
      [
        "al",
        "though"
      ],
      [
        "al",
        "ways"
      ],
      [
        "sa",
        "me"
      ],
      [
        "ca",
        "ught"
      ],
      [
        "them",
        "selves"
      ],
      [
        "ent",
        "ly"
      ],
      [
        "bu",
        "g"
      ],
      [
        "fe",
        "et"
      ],
      [
        "pl",
        "at"
      ],
      [
        "con",
        "d"
      ],
      [
        "af",
        "raid"
      ],
      [
        "ta",
        "il"
      ],
      [
        "ho",
        "me"
      ],
      [
        "appe",
        "ar"
      ],
      [
        "wal",
        "ked"
      ],
      [
        "pris",
        "on"
      ],
      [
        "sun",
        "s"
      ],
      [
        "ye",
        "llow"
      ],
      [
        "hel",
        "p"
      ],
      [
        "wr",
        "ong"
      ],
      [
        "hal",
        "f"
      ],
      [
        "kn",
        "own"
      ],
      [
        "pers",
        "on"
      ],
      [
        "E",
        "D"
      ],
      [
        "b",
        "on"
      ],
      [
        "c",
        "u"
      ],
      [
        "c",
        "ut"
      ],
      [
        "c",
        "tion"
      ],
      [
        "f",
        "f"
      ],
      [
        "m",
        "at"
      ],
      [
        "s",
        "ound"
      ],
      [
        "s",
        "ince"
      ],
      [
        "an",
        "ted"
      ],
      [
        "in",
        "es"
      ],
      [
        "th",
        "orn"
      ],
      [
        "ar",
        "m"
      ],
      [
        "ar",
        "y"
      ],
      [
        "it",
        "ed"
      ],
      [
        "id",
        "ed"
      ],
      [
        "we",
        "l"
      ],
      [
        "al",
        "s"
      ],
      [
        "al",
        "ong"
      ],
      [
        "no",
        "ti"
      ],
      [
        "wh",
        "y"
      ],
      [
        "with",
        "out"
      ],
      [
        "ca",
        "ve"
      ],
      [
        "ge",
        "st"
      ],
      [
        "ha",
        "ir"
      ],
      [
        "one",
        "t"
      ],
      [
        "whe",
        "ther"
      ],
      [
        "mo",
        "ved"
      ],
      [
        "sh",
        "ould"
      ],
      [
        "ter",
        "s"
      ],
      [
        "some",
        "thing"
      ],
      [
        "sp",
        "r"
      ],
      [
        "We",
        "ll"
      ],
      [
        "hap",
        "s"
      ],
      [
        "wal",
        "k"
      ],
      [
        "ser",
        "ved"
      ],
      [
        "happ",
        "en"
      ],
      [
        "eas",
        "ily"
      ],
      [
        "stair",
        "s"
      ],
      [
        "dread",
        "ful"
      ],
      [
        "clim",
        "b"
      ],
      [
        "pass",
        "ed"
      ],
      [
        "sudden",
        "ly"
      ],
      [
        "hur",
        "t"
      ],
      [
        "hum",
        "bug"
      ],
      [
        "A",
        "t"
      ],
      [
        "C",
        "ity"
      ],
      [
        "E",
        "merald"
      ],
      [
        "H",
        "orse"
      ],
      [
        "R",
        "o"
      ],
      [
        "T",
        "ig"
      ],
      [
        "V",
        "o"
      ],
      [
        "a",
        "ke"
      ],
      [
        "b",
        "ir"
      ],
      [
        "b",
        "ab"
      ],
      [
        "c",
        "ru"
      ],
      [
        "c",
        "ious"
      ],
      [
        "d",
        "in"
      ],
      [
        "f",
        "ter"
      ],
      [
        "g",
        "ive"
      ],
      [
        "g",
        "gest"
      ],
      [
        "h",
        "u"
      ],
      [
        "j",
        "um"
      ],
      [
        "n",
        "or"
      ],
      [
        "p",
        "ath"
      ],
      [
        "r",
        "s"
      ],
      [
        "s",
        "ca"
      ],
      [
        "s",
        "leep"
      ],
      [
        "u",
        "su"
      ],
      [
        "ou",
        "d"
      ],
      [
        "to",
        "nes"
      ],
      [
        "le",
        "a"
      ],
      [
        "st",
        "er"
      ],
      [
        "be",
        "st"
      ],
      [
        "be",
        "low"
      ],
      [
        "be",
        "long"
      ],
      [
        "The",
        "se"
      ],
      [
        "for",
        "med"
      ],
      [
        "su",
        "ggest"
      ],
      [
        "ss",
        "ed"
      ],
      [
        "fe",
        "el"
      ],
      [
        "po",
        "se"
      ],
      [
        "ang",
        "er"
      ],
      [
        "rep",
        "ly"
      ],
      [
        "head",
        "s"
      ],
      [
        "com",
        "p"
      ],
      [
        "el",
        "s"
      ],
      [
        "near",
        "ly"
      ],
      [
        "bl",
        "ue"
      ],
      [
        "wat",
        "er"
      ],
      [
        "hun",
        "gry"
      ],
      [
        "ste",
        "ad"
      ],
      [
        "cir",
        "c"
      ],
      [
        "har",
        "ness"
      ],
      [
        "cas",
        "e"
      ],
      [
        "dist",
        "ance"
      ],
      [
        "lanter",
        "ns"
      ],
      [
        "tri",
        "ck"
      ],
      [
        "Ro",
        "yal"
      ],
      [
        "Tig",
        "er"
      ],
      [
        "Vo",
        "e"
      ],
      [
        "A",
        "fter"
      ],
      [
        "B",
        "e"
      ],
      [
        "E",
        "T"
      ],
      [
        "L",
        "et"
      ],
      [
        "T",
        "h"
      ],
      [
        "W",
        "I"
      ],
      [
        "W",
        "it"
      ],
      [
        "c",
        "or"
      ],
      [
        "c",
        "ur"
      ],
      [
        "d",
        "ark"
      ],
      [
        "e",
        "ither"
      ],
      [
        "f",
        "la"
      ],
      [
        "f",
        "act"
      ],
      [
        "i",
        "a"
      ],
      [
        "k",
        "es"
      ],
      [
        "k",
        "ick"
      ],
      [
        "l",
        "t"
      ],
      [
        "m",
        "and"
      ],
      [
        "m",
        "ar"
      ],
      [
        "o",
        "c"
      ],
      [
        "p",
        "ow"
      ],
      [
        "p",
        "rom"
      ],
      [
        "s",
        "or"
      ],
      [
        "s",
        "po"
      ],
      [
        "s",
        "ight"
      ],
      [
        "s",
        "word"
      ],
      [
        "t",
        "re"
      ],
      [
        "t",
        "rou"
      ],
      [
        "u",
        "gh"
      ],
      [
        "w",
        "ind"
      ],
      [
        "he",
        "art"
      ],
      [
        "ou",
        "th"
      ],
      [
        "on",
        "d"
      ],
      [
        "as",
        "ton"
      ],
      [
        "en",
        "se"
      ],
      [
        "le",
        "ave"
      ],
      [
        "be",
        "come"
      ],
      [
        "me",
        "m"
      ],
      [
        "ro",
        "ss"
      ],
      [
        "ch",
        "ing"
      ],
      [
        "ver",
        "n"
      ],
      [
        "sa",
        "fe"
      ],
      [
        "un",
        "g"
      ],
      [
        "ca",
        "vern"
      ],
      [
        "la",
        "ugh"
      ],
      [
        "de",
        "ed"
      ],
      [
        "sh",
        "ort"
      ],
      [
        "lo",
        "st"
      ],
      [
        "end",
        "ed"
      ],
      [
        "him",
        "self"
      ],
      [
        "if",
        "f"
      ],
      [
        "ex",
        "am"
      ],
      [
        "ex",
        "plain"
      ],
      [
        "fo",
        "l"
      ],
      [
        "ap",
        "art"
      ],
      [
        "ill",
        "ed"
      ],
      [
        "ho",
        "le"
      ],
      [
        "bod",
        "ies"
      ],
      [
        "brea",
        "k"
      ],
      [
        "che",
        "s"
      ],
      [
        "happ",
        "ened"
      ],
      [
        "di",
        "re"
      ],
      [
        "drag",
        "onet"
      ],
      [
        "open",
        "ing"
      ],
      [
        "wonder",
        "ful"
      ],
      [
        "fle",
        "w"
      ],
      [
        "stop",
        "ped"
      ],
      [
        "dec",
        "ided"
      ],
      [
        "fru",
        "it"
      ],
      [
        "A",
        "L"
      ],
      [
        "A",
        "re"
      ],
      [
        "B",
        "ill"
      ],
      [
        "I",
        "G"
      ],
      [
        "L",
        "ion"
      ],
      [
        "M",
        "y"
      ],
      [
        "N",
        "ow"
      ],
      [
        "N",
        "ever"
      ],
      [
        "O",
        "U"
      ],
      [
        "R",
        "ain"
      ],
      [
        "R",
        "ul"
      ],
      [
        "c",
        "orn"
      ],
      [
        "d",
        "u"
      ],
      [
        "d",
        "ou"
      ],
      [
        "d",
        "anger"
      ],
      [
        "f",
        "r"
      ],
      [
        "f",
        "at"
      ],
      [
        "f",
        "ly"
      ],
      [
        "f",
        "oo"
      ],
      [
        "g",
        "u"
      ],
      [
        "h",
        "igh"
      ],
      [
        "i",
        "ence"
      ],
      [
        "k",
        "ind"
      ],
      [
        "k",
        "new"
      ],
      [
        "m",
        "id"
      ],
      [
        "m",
        "agic"
      ],
      [
        "m",
        "outh"
      ],
      [
        "n",
        "g"
      ],
      [
        "n",
        "ice"
      ],
      [
        "o",
        "il"
      ],
      [
        "p",
        "ri"
      ],
      [
        "s",
        "ed"
      ],
      [
        "s",
        "up"
      ],
      [
        "s",
        "que"
      ],
      [
        "t",
        "ro"
      ],
      [
        "t",
        "all"
      ],
      [
        "w",
        "and"
      ],
      [
        "w",
        "all"
      ],
      [
        "he",
        "ar"
      ],
      [
        "re",
        "ed"
      ],
      [
        "re",
        "ally"
      ],
      [
        "ou",
        "p"
      ],
      [
        "er",
        "y"
      ],
      [
        "ing",
        "ly"
      ],
      [
        "be",
        "ast"
      ],
      [
        "you",
        "ng"
      ],
      [
        "so",
        "l"
      ],
      [
        "wh",
        "ite"
      ],
      [
        "li",
        "fe"
      ],
      [
        "ti",
        "c"
      ],
      [
        "iz",
        "e"
      ],
      [
        "su",
        "c"
      ],
      [
        "bu",
        "sh"
      ],
      [
        "fe",
        "lt"
      ],
      [
        "see",
        "ms"
      ],
      [
        "po",
        "ss"
      ],
      [
        "ru",
        "b"
      ],
      [
        "ous",
        "ly"
      ],
      [
        "would",
        "n"
      ],
      [
        "did",
        "n"
      ],
      [
        "ho",
        "ld"
      ],
      [
        "fri",
        "ght"
      ],
      [
        "str",
        "ong"
      ],
      [
        "wor",
        "k"
      ],
      [
        "pigle",
        "t"
      ],
      [
        "que",
        "st"
      ],
      [
        "cle",
        "ar"
      ],
      [
        "ious",
        "ly"
      ],
      [
        "star",
        "ted"
      ],
      [
        "oft",
        "en"
      ],
      [
        "clo",
        "se"
      ],
      [
        "house",
        "s"
      ],
      [
        "invis",
        "ible"
      ],
      [
        "tal",
        "k"
      ],
      [
        "Un",
        "cle"
      ],
      [
        "spl",
        "end"
      ],
      [
        "cu",
        "ri"
      ],
      [
        "C",
        "an"
      ],
      [
        "D",
        "on"
      ],
      [
        "I",
        "T"
      ],
      [
        "O",
        "N"
      ],
      [
        "O",
        "O"
      ],
      [
        "c",
        "r"
      ],
      [
        "d",
        "ro"
      ],
      [
        "d",
        "ri"
      ],
      [
        "f",
        "a"
      ],
      [
        "g",
        "az"
      ],
      [
        "i",
        "o"
      ],
      [
        "l",
        "oud"
      ],
      [
        "m",
        "in"
      ],
      [
        "n",
        "ed"
      ],
      [
        "n",
        "ight"
      ],
      [
        "p",
        "ing"
      ],
      [
        "p",
        "ink"
      ],
      [
        "r",
        "ay"
      ],
      [
        "s",
        "we"
      ],
      [
        "u",
        "ck"
      ],
      [
        "u",
        "gs"
      ],
      [
        "v",
        "al"
      ],
      [
        "re",
        "s"
      ],
      [
        "re",
        "as"
      ],
      [
        "re",
        "mem"
      ],
      [
        "in",
        "deed"
      ],
      [
        "to",
        "m"
      ],
      [
        "at",
        "ing"
      ],
      [
        "as",
        "h"
      ],
      [
        "en",
        "g"
      ],
      [
        "is",
        "ed"
      ],
      [
        "ll",
        "ing"
      ],
      [
        "it",
        "ion"
      ],
      [
        "me",
        "et"
      ],
      [
        "wi",
        "z"
      ],
      [
        "ver",
        "s"
      ],
      [
        "wh",
        "is"
      ],
      [
        "li",
        "ved"
      ],
      [
        "un",
        "n"
      ],
      [
        "un",
        "seen"
      ],
      [
        "ne",
        "y"
      ],
      [
        "la",
        "ug"
[...]
